{
    "#version:": 0,
    "Ġ": 46827,
    "h": 49773,
    "i": 49184,
    "r": 49194,
    "o": 48182,
    "Ġt": 49222,
    "e": 47811,
    "a": 48479,
    "in": 49846,
    "Ġa": 49557,
    "Ġo": 49896,
    "Ġan": 49337,
    "l": 49650,
    "en": 47974,
    "s": 49465,
    "v": 49917,
    "Ġb": 49682,
    "c": 49857,
    "u": 48467,
    "Ġth": 47386,
    "Ġf": 49654,
    "Ġs": 49567,
    "'": 43912,
    "at": 47833,
    "it": 49389,
    "Ġy": 45996,
    "Ġw": 49818,
    "t": 49674,
    "n": 48570,
    "er": 48244,
    "k": 49120,
    "Ġc": 49922,
    "he": 43077,
    "p": 49980,
    "ĠT": 49822,
    "Ġp": 49861,
    "Ġh": 49524,
    "Ġd": 49172,
    "an": 48945,
    "ig": 49863,
    "es": 48928,
    "is": 49606,
    "0": 49704,
    "Ġn": 49158,
    "Ġe": 48477,
    "re": 49933,
    "or": 48504,
    "q": 48127,
    "Ġha": 43168,
    "ou": 48100,
    "igh": 33745,
    "ar": 48918,
    "m": 49199,
    "-": 48891,
    "al": 49767,
    "ac": 49940,
    "â": 46001,
    "g": 49799,
    "as": 47783,
    "om": 49996,
    "T": 49986,
    "Ġg": 50000,
    "am": 49187,
    "Ġthe": 44473,
    "id": 47032,
    "f": 49866,
    "ic": 47932,
    ".": 47827,
    "Ġin": 49885,
    "ag": 49383,
    "Ġm": 49049,
    "on": 49589,
    "ion": 49645,
    "Ġwh": 49421,
    "Ġu": 47855,
    "ĠS": 49796,
    "im": 49686,
    "b": 49976,
    "Ġon": 47492,
    "Ġsa": 49879,
    "Ġyou": 34861,
    "ab": 48993,
    "Ġcon": 48005,
    "Ġab": 49892,
    "Ġwe": 49416,
    "ver": 48565,
    "Ġcom": 33403,
    ",": 42048,
    "ĠI": 49945,
    "Ġof": 28384,
    "Ġ2": 31903,
    "Ġre": 49984,
    "ul": 44973,
    "Ġbe": 49518,
    "Ġl": 49663,
    "ay": 49732,
    "ow": 47727,
    "ct": 49209,
    "res": 48013,
    "ation": 14953,
    "Ġhe": 49463,
    "ĠC": 48680,
    "Ġwhe": 16880,
    "ve": 34883,
    "Ċ": 44065,
    "Ġal": 46901,
    "Ġk": 49968,
    "op": 47551,
    "d": 49251,
    "--": 46649,
    "ing": 40668,
    "Ġj": 48087,
    "Ġint": 47479,
    "ent": 49962,
    "Ġpe": 48783,
    "Ġit": 49445,
    "ir": 49121,
    "Ġwor": 48112,
    "ad": 49937,
    "w": 49229,
    "Ġ1": 14881,
    "ĠH": 49618,
    "nd": 45403,
    "au": 44463,
    "ur": 49038,
    "Ġat": 38069,
    "Ġpl": 48668,
    "if": 46902,
    "Ġtw": 45238,
    "oc": 49324,
    ")": 47507,
    "rou": 48371,
    "se": 49028,
    "x": 48137,
    "Ġad": 49874,
    "j": 49685,
    "Ġag": 41954,
    "cl": 47112,
    "ter": 49345,
    "Ġkn": 47613,
    "Ġne": 45515,
    "Ġse": 41512,
    "ĠTh": 49539,
    "ĠW": 49862,
    "Ġbec": 47418,
    "ĠâĢ": 37600,
    "ĠU": 49298,
    "os": 49750,
    "ĠR": 49845,
    "le": 49155,
    "Ġsu": 45606,
    "pe": 45802,
    "ro": 45688,
    "Ġyear": 23914,
    "Ġsh": 49875,
    "I": 49724,
    "ri": 48714,
    "Ġde": 49947,
    "Ġr": 48745,
    "00": 36932,
    "_": 48774,
    "Ġas": 48037,
    "ub": 46421,
    "ĠA": 49351,
    "ot": 45353,
    "Ġim": 44383,
    "=": 48619,
    "ib": 43737,
    "Ġdo": 44188,
    "Ġman": 49109,
    "ak": 47499,
    "il": 49821,
    "ers": 49182,
    "ĠB": 49920,
    "y": 48106,
    "Ġpro": 45804,
    "ment": 36843,
    "ĠY": 46773,
    "Ġgo": 48229,
    "Ġst": 48764,
    "st": 49909,
    "ol": 49772,
    "um": 44589,
    "1": 49133,
    "sel": 44962,
    "mer": 44484,
    "oll": 48997,
    "âĢ": 48006,
    "Ġpo": 49624,
    "ĠN": 49816,
    "em": 47431,
    "Ġus": 46843,
    "ra": 49054,
    "we": 43520,
    "Ġdiff": 44003,
    "----": 30679,
    "ce": 49585,
    "..": 40465,
    "/": 47580,
    "ĠL": 49913,
    "Ġtr": 49611,
    "ut": 47808,
    "Ġspe": 46587,
    "Ġbet": 28967,
    "ist": 46974,
    "ĠD": 49954,
    "Ġagain": 773,
    "Ġex": 48520,
    "Ġhel": 42887,
    "et": 46619,
    "ĠP": 49955,
    "us": 43064,
    "ire": 42662,
    "Ġte": 48404,
    "Ġsy": 41938,
    "iv": 47739,
    "Ġle": 49082,
    "vel": 26368,
    "iz": 47520,
    "od": 46202,
    "Ġsupp": 43488,
    "ĠF": 49593,
    "ĠThe": 43744,
    "5": 49679,
    "ill": 49918,
    "W": 49211,
    "E": 49470,
    "Ġch": 48763,
    "pt": 44658,
    "form": 23659,
    "Ġoff": 48750,
    "ie": 49613,
    "Ġto": 39853,
    "*": 47814,
    "Ġdiffere": 5145,
    "ant": 49398,
    "Ġv": 48314,
    "Ġis": 47024,
    "th": 48577,
    "itt": 48264,
    "ã": 34843,
    "Th": 46510,
    "Ġres": 49075,
    "Ġsec": 43059,
    "Ġdis": 48323,
    "Ġsomet": 17036,
    "Ġcomp": 49739,
    "Ġmon": 44982,
    "Ġgovern": 46794,
    "Ġwith": 33969,
    "Ġqu": 49872,
    "2": 28641,
    "Ġar": 49810,
    "Ġeff": 4141,
    "Ġcont": 48372,
    "Ġall": 48902,
    "Ġbel": 28362,
    "ch": 49614,
    "Ġinc": 48970,
    "Ġfe": 35409,
    "ere": 47768,
    "3": 38940,
    "Ġnum": 35264,
    "S": 49483,
    "Ġop": 45657,
    "ord": 45225,
    "ate": 44956,
    "Ġfor": 47518,
    "\"": 48519,
    "ain": 49966,
    "ĠTr": 47906,
    "Ġcomm": 45054,
    "Ġinv": 45783,
    "Ġapp": 43345,
    "O": 49458,
    "Ġpart": 49646,
    "ru": 49932,
    "Ġatt": 48726,
    "ard": 44838,
    ":": 47460,
    "Ġbu": 46287,
    "Ġinclud": 3152,
    "Ġke": 28101,
    "Ġcl": 49050,
    "Ġsm": 44334,
    "amp": 45928,
    "A": 49690,
    "Ġpol": 42409,
    "Ġper": 49009,
    "one": 1164,
    "pl": 46838,
    "==": 18349,
    "Ġdid": 42292,
    "el": 49729,
    "ert": 41990,
    "__": 17314,
    "Ġprog": 28520,
    "olog": 39540,
    "Ġret": 47105,
    "Ġcall": 24700,
    "Ġgrou": 2373,
    "uth": 1202,
    "Ġcur": 49511,
    "Ġwom": 31259,
    "ĠO": 47786,
    "ĠE": 48607,
    "iss": 39106,
    "Ġdes": 49989,
    "read": 46607,
    "pp": 48170,
    "Ġcount": 33715,
    "Ġor": 49958,
    "ail": 39205,
    "ĠG": 49927,
    "aj": 34689,
    "con": 48160,
    "ĠCom": 46807,
    "ĠM": 49793,
    "B": 49836,
    "Ġ3": 48765,
    "Ġchar": 49790,
    "H": 49671,
    "oh": 48733,
    "Ġunt": 47617,
    "end": 49556,
    "Ġen": 48329,
    "ĠUn": 47077,
    "are": 45239,
    "Ġ201": 12875,
    "cc": 35509,
    "Ġimport": 33077,
    "Ġ19": 45356,
    "Ġdoes": 46446,
    "Ġbus": 42490,
    "Ġcle": 37271,
    "ĠAmeric": 25478,
    "ivers": 11225,
    "Ġme": 49598,
    "Ġcontro": 20369,
    "Y": 49409,
    "Ġfam": 48121,
    "Ġhapp": 49159,
    "ide": 42126,
    "our": 48748,
    "ne": 49777,
    "Ġact": 43585,
    "ap": 48378,
    "Ġhum": 47379,
    "Ġav": 42526,
    "Ġrec": 48510,
    "?": 42688,
    "Ġnew": 39745,
    "Ġfollow": 10314,
    "Ġprodu": 11153,
    "un": 49397,
    "Ġoffic": 8465,
    "Ġposs": 23054,
    "and": 48823,
    "Ġchild": 43631,
    "ĠJ": 49561,
    "Ġwork": 47109,
    "Ġcour": 34686,
    "--------": 45282,
    "Ġev": 49142,
    "8": 49248,
    "Ġprot": 44621,
    "Ġthough": 5811,
    "Ġquest": 21104,
    "Ġsever": 19185,
    "ĠSt": 49926,
    "4": 49825,
    "art": 49924,
    "ust": 43772,
    "Ġunder": 45941,
    "Ġcomple": 32288,
    "Ġacc": 45412,
    "Â": 44104,
    "ore": 45960,
    "Ġother": 4051,
    "The": 47608,
    "ition": 8481,
    "Ġmem": 44685,
    "ĠWh": 44517,
    "Ġam": 45541,
    "Ġem": 48045,
    "Ġlike": 20212,
    "F": 49855,
    "Ġpres": 46358,
    "ivid": 16080,
    "6": 49601,
    "Ġear": 37087,
    "iet": 21332,
    "Ġmark": 41230,
    "Ġstr": 47200,
    "Ġproble": 2506,
    "Ġsoc": 40966,
    "ort": 34621,
    "Ġcamp": 22748,
    "C": 49730,
    "Ġmonth": 9396,
    "Ġplay": 48683,
    "Ġpartic": 18503,
    "Ġsugg": 1695,
    "ĠCh": 49373,
    "Ġpri": 37513,
    "Ġloc": 47781,
    "Ġpolit": 31468,
    "Ġask": 4482,
    "Ġget": 2756,
    "Ġac": 48392,
    "Ġbelie": 41377,
    "Ġtoget": 1723,
    "Ġind": 49664,
    "Ġval": 46003,
    "Ġare": 13223,
    "ĠPres": 48545,
    "Ġany": 32590,
    "Ġexper": 11737,
    "att": 47093,
    "Ġinvest": 49607,
    "Ġimp": 49842,
    "ward": 1762,
    "ens": 45910,
    "Ġ5": 49633,
    "ĠEuro": 40490,
    "Ġmil": 41671,
    "Ġspec": 31419,
    "Ġbl": 47953,
    "Ġlook": 40242,
    "Ġstud": 20492,
    "Ġcommun": 48301,
    "Ġmed": 47919,
    "Ġsing": 38858,
    "Wh": 43362,
    "ĠRep": 47166,
    "Ġstart": 35994,
    "Ġiss": 43913,
    "Ġel": 48776,
    "Ġcons": 49931,
    "9": 48639,
    "Ġadd": 48302,
    "Ġsim": 39443,
    "Ġcharact": 3180,
    "Ġreport": 6192,
    "Ġty": 47961,
    "ĠHow": 47299,
    "Ġent": 48862,
    "Ġhist": 25730,
    "ff": 46730,
    "....": 34362,
    "ed": 49033,
    "Ġdisc": 41627,
    "Ġro": 48548,
    "Ġide": 49509,
    "Ġsome": 8021,
    "ci": 45881,
    "ull": 47717,
    "Ġob": 45398,
    "Ġserv": 43091,
    "Ġnot": 33019,
    "Ġprov": 45370,
    "7": 49895,
    "Ġbeh": 37467,
    "Ġhow": 1903,
    "Ġfun": 49576,
    "Ġfr": 46499,
    "Ġser": 39107,
    "Ġpoint": 26903,
    "Ġpre": 49139,
    "Ġwho": 27578,
    "Ġprob": 40779,
    "Ġvers": 31434,
    "Ġche": 44747,
    "R": 49963,
    "min": 45119,
    "Ġben": 42928,
    "Ġdet": 47969,
    "Ġsign": 46669,
    "Ġbr": 49964,
    "Ġdesc": 31236,
    "Ġwant": 10036,
    "ress": 44037,
    "#": 29698,
    "Ġhim": 1986,
    "Ġhour": 29905,
    "Ġcre": 46837,
    "ĠIn": 48855,
    "ĠQ": 45469,
    "Ġrese": 22209,
    "Ġbre": 46582,
    "Ġsp": 48807,
    "ater": 45080,
    "Ġgener": 48582,
    "Ġevery": 10653,
    "ive": 6141,
    "Ġph": 41461,
    "Ġsay": 2027,
    "Ġpos": 46181,
    "ĠCan": 49951,
    "ang": 49655,
    "Ġcan": 47179,
    "Ġrel": 49871,
    "Ġ4": 49899,
    "Ġup": 47108,
    "Ġconc": 35072,
    "Ġseem": 31537,
    "Ġann": 49717,
    "ight": 47355,
    "iqu": 46509,
    "Ġout": 49080,
    "du": 24238,
    "og": 48751,
    "ĠSe": 49712,
    "int": 48524,
    "med": 41438,
    "Ġrep": 48162,
    "Ġsignific": 11830,
    "Ġlong": 40059,
    "\":": 47964,
    "Ġthem": 31637,
    "ip": 48878,
    "Ġrequ": 36833,
    "Ġmilit": 27940,
    "Ġresp": 42674,
    "Ġsub": 49430,
    "Ġinst": 24587,
    "Ġmin": 48172,
    "Ġhig": 4256,
    "Ġmet": 46836,
    "Ġpolic": 33522,
    "rib": 43875,
    "Ġword": 26559,
    "Ġfin": 41825,
    "Ġchang": 5354,
    "ĠDem": 41739,
    "Ġfriend": 7775,
    "Ġdam": 40652,
    "**": 7907,
    "viron": 11848,
    "Ġtot": 49675,
    "!": 48470,
    "Ġneed": 44403,
    "Ġdevelop": 20871,
    "Ġresult": 43185,
    "ĠOb": 46407,
    "Ġright": 42878,
    "Ġrun": 39477,
    "Ġwas": 43484,
    "Ġpret": 36511,
    "Ġtarg": 6415,
    "ww": 2248,
    "ud": 48484,
    "idd": 41112,
    "ess": 44412,
    "Ġshow": 33083,
    "L": 49670,
    "ke": 44834,
    "ashing": 2287,
    "ourn": 18153,
    "Ġdec": 48985,
    "Ġcontin": 37384,
    "ove": 33263,
    "====": 49900,
    "Ġeas": 33417,
    "Ġener": 26503,
    "Ġass": 49946,
    "ob": 49623,
    "Ġso": 48446,
    "Ġmom": 33760,
    "Ġes": 44639,
    "____": 37150,
    "ĠCl": 48666,
    "Ġperson": 27567,
    "Ġbuild": 40247,
    "ĠBl": 49709,
    "Ġincre": 41612,
    "Ã": 42069,
    "Ġhtt": 3485,
    "Ġins": 49486,
    "Ġwr": 37908,
    "Ġstat": 47491,
    "Ġfil": 46283,
    "Ġmus": 26759,
    "ific": 42236,
    "Ġorig": 47069,
    "Ġfav": 38676,
    "ov": 47042,
    "act": 49784,
    "ĠK": 49969,
    "ll": 47738,
    "Ġpr": 46220,
    "Ġaff": 39530,
    "ep": 47597,
    "ĠIs": 41583,
    "ĠSept": 2438,
    "av": 48020,
    "Ġcompan": 19174,
    "Ġart": 43004,
    "Ġed": 45616,
    "Ġrele": 22827,
    "Ġinter": 48596,
    "Ġrece": 18882,
    "P": 49736,
    "Ġdef": 48864,
    "ĠDep": 43903,
    "z": 49928,
    "Ġleg": 44140,
    "Ġmod": 48485,
    "IN": 46557,
    "Ġreg": 49997,
    "Ġopp": 38387,
    "Ġlead": 5728,
    "Ġrelations": 2521,
    "anc": 41869,
    "Ġpot": 35695,
    "Ġest": 44330,
    "Ġcol": 40942,
    "Ġsur": 47178,
    "Ġofficial": 2573,
    "Ġindust": 11543,
    "Ġhand": 45661,
    "Ġpriv": 21628,
    "Ġve": 48128,
    "Ġter": 35354,
    "ĠDr": 46095,
    "Ġperform": 26705,
    "ict": 47018,
    "her": 37655,
    "ace": 48064,
    "Ġturn": 33962,
    "rough": 2654,
    "Ġhop": 29183,
    "ough": 2662,
    "Ġkill": 25287,
    "sy": 36792,
    "ĠAug": 2677,
    "U": 47665,
    "Ġexpect": 28843,
    "N": 49544,
    "Ġinvol": 36844,
    "Ġey": 45065,
    "Ġquick": 46009,
    "Ġcand": 32013,
    "Ġfoc": 25142,
    "led": 37181,
    "ix": 39036,
    "Ġpop": 47785,
    "Ġset": 44011,
    "Ġvar": 23943,
    "Ġlevel": 34406,
    "ell": 41545,
    "itte": 36358,
    "Ġimpro": 47578,
    "Ġprof": 39063,
    "ĠNew": 43612,
    "Ġco": 48343,
    "ĠTw": 49569,
    "ĠGo": 49534,
    "Ġnear": 36987,
    "Ġhappen": 5581,
    "ĠSy": 49226,
    "Ġfeat": 9338,
    "Ġeconom": 40335,
    "ĠApr": 2780,
    "Ġtechn": 48044,
    "Ġpur": 45820,
    "Ġeffect": 43240,
    "Ġocc": 31332,
    "Ġwebs": 9038,
    "Ġinf": 47869,
    "Ġcurrent": 28374,
    "ĠAd": 48721,
    "Ġsc": 49930,
    "Ġtra": 43083,
    "Ġsit": 37266,
    "ĠCour": 36851,
    "Ġtri": 46708,
    "Ġbo": 40795,
    "ys": 28094,
    "Ġant": 49804,
    "Ġsl": 48711,
    "Ġeng": 46677,
    "ĠSu": 45332,
    "Ġvict": 31701,
    "Ġproper": 6353,
    "Ġexec": 42730,
    "Ġ6": 48976,
    "Ġnet": 49148,
    "Ġext": 47607,
    "ĠAust": 25436,
    "Ġcap": 46709,
    "Ġallow": 49044,
    "Ġca": 45832,
    "Ġbro": 49912,
    "Ġcou": 48679,
    "ec": 47449,
    "ly": 43527,
    "ĠCong": 48930,
    "Ġappro": 45563,
    "Ġrul": 31277,
    "for": 45260,
    "Ġproduct": 32005,
    "Ġvis": 30861,
    "Ġdoc": 45651,
    "Ġcomplete": 2935,
    "ĠCal": 47770,
    "Ġpub": 46717,
    "ond": 42448,
    "Ġsex": 32232,
    "Ġstand": 41765,
    "ect": 44249,
    "Ġfore": 49622,
    "ĠFr": 49844,
    "Ġdem": 48822,
    "und": 46604,
    "Ġintern": 47011,
    "Ġmeet": 8037,
    "ĠV": 49780,
    "Ġdirect": 34564,
    "ĠOct": 3012,
    "ĠJan": 27856,
    "ĠDav": 26363,
    "Ġmess": 36986,
    "Ġansw": 18622,
    "Ġcar": 44066,
    "ĠRuss": 12979,
    "eng": 47167,
    "Ġmult": 47113,
    "ĠAf": 43983,
    "Ġgl": 49775,
    "Ġlangu": 8695,
    "Ġnecess": 41663,
    "ĠRe": 48436,
    "orn": 46192,
    "ues": 20251,
    "Ġmor": 41517,
    "Ġdev": 46805,
    "ĠTH": 49105,
    "ĠCent": 48023,
    "Ġsaf": 33375,
    "ĠCanad": 33409,
    "Ġsystem": 31235,
    "vert": 31554,
    "Ġgrow": 33272,
    "Ġmove": 8395,
    "Ġpract": 44556,
    "ok": 48088,
    "Ġtalk": 6364,
    "Ġcor": 39468,
    "Ġdou": 4019,
    "Ġimmedi": 6848,
    "Ġparent": 46417,
    "Ġcond": 47838,
    "augh": 42475,
    "Ġannoun": 48777,
    "ĠRepublic": 4479,
    "Ġdeter": 49017,
    "Ġdescrib": 11804,
    "ĠCount": 47300,
    "(": 46236,
    "ĠDe": 49316,
    "ĠEurope": 19751,
    "Ġattack": 16136,
    "ĠCalif": 37449,
    "Ġexact": 3191,
    "Ġcare": 35883,
    "Ġlat": 41015,
    "nes": 31146,
    "Ġteam": 48169,
    "air": 41365,
    "Ġstre": 48101,
    "ast": 45711,
    "urs": 46743,
    "ellig": 32685,
    "ous": 41553,
    "Ġcost": 25639,
    "Ġnorm": 45964,
    "Ġread": 31489,
    "Ġinterest": 5098,
    "ĠSund": 32459,
    "Ġet": 49200,
    "Ġrem": 49077,
    "Ġyour": 26757,
    "Ġtreat": 30479,
    "Ġgu": 45010,
    "ĠBrit": 46438,
    "Ġphys": 47971,
    "Ġcould": 3266,
    "Ġref": 49915,
    "EN": 45255,
    "bo": 48359,
    "osp": 41653,
    "ren": 34048,
    "cher": 30877,
    "ock": 12466,
    "<": 47679,
    "Ġaut": 44364,
    "est": 47437,
    "Ġdesign": 32526,
    "ĠLe": 49961,
    "Ġappear": 12400,
    "Ġstru": 7170,
    "Ġcho": 45019,
    "Ġparticular": 45341,
    "ann": 44762,
    "ĠWed": 36424,
    "Ġapplic": 16802,
    "Ġmy": 48506,
    "Ġfre": 38787,
    "ĠEng": 45818,
    "Ġwrit": 19081,
    "uf": 3348,
    "Ġcr": 49768,
    "ĠGener": 45748,
    "Ġthink": 44951,
    "Ġlim": 48265,
    "ĠPart": 47419,
    "Ġmean": 26113,
    "co": 49015,
    "Ġwould": 3381,
    "Ġtou": 43780,
    "Ġcent": 48574,
    "Ġcomput": 31095,
    "Ġinvestig": 44591,
    "Ġ200": 5989,
    "Ġlaw": 40840,
    "atur": 39469,
    "Ġadminist": 16914,
    "Ġopportun": 6188,
    "Ġpower": 48490,
    "M": 49744,
    "Ġclaim": 49763,
    "ĠEar": 21392,
    "ear": 49939,
    "ĠAr": 49719,
    "Ġun": 49720,
    "Ġviol": 38028,
    "Ġopt": 42896,
    "Ġthrough": 41742,
    "Ġpie": 4952,
    "Ġeduc": 45307,
    "Ġdri": 37217,
    "Ġitem": 3454,
    "Ġknow": 26271,
    "Ġbegin": 33620,
    "Ġcertain": 18724,
    "ound": 9714,
    "Ġmajor": 43728,
    "port": 26272,
    "Ġgreat": 27696,
    "Ġcoun": 47331,
    "ĠDon": 47752,
    "ines": 3507,
    "ĠMus": 43428,
    "Ġweap": 4027,
    "Ġanal": 48640,
    "Ġfig": 31219,
    "Ġsoft": 41279,
    "ĠInd": 49631,
    "Ġpass": 49692,
    "Ġmov": 6663,
    "ĠPl": 43002,
    "Ġpress": 49651,
    "Ġbook": 44091,
    "Ġactiv": 35951,
    "ĠSen": 49402,
    "Ġlet": 9361,
    "G": 49446,
    "Ġtyp": 49683,
    "Ġmay": 44405,
    "Ġpat": 44263,
    "Ġce": 45671,
    "----------------": 22114,
    "Ġcred": 49665,
    "Ġstra": 37370,
    "ĠHe": 49902,
    "ĠMich": 38589,
    "ber": 38937,
    "ĠAng": 48713,
    "Ġgr": 49745,
    "ign": 48691,
    "Ġassoci": 19838,
    "Ġindividual": 48705,
    "ĠAss": 49889,
    "ish": 49530,
    "Ġsum": 43030,
    "ĠTex": 20757,
    "Ġfull": 49315,
    "ĠSec": 26452,
    "ĠFeb": 3690,
    "Ġjob": 3691,
    "Ġreal": 39404,
    "Ġmeas": 40502,
    "ĠWind": 26325,
    "Ġcult": 45592,
    "ite": 45141,
    "ĠWill": 32766,
    "row": 46737,
    "D": 49573,
    "Ġsle": 46339,
    "iver": 35343,
    "Ġfavor": 43312,
    "Ġorgan": 46474,
    "Ġchall": 31872,
    "Ġsus": 17908,
    "Ġcrit": 44074,
    "uc": 48660,
    "vent": 35393,
    "Ġ8": 48709,
    "htt": 5195,
    "Ġlarg": 4132,
    "Ġadv": 33883,
    "Ġbenef": 38870,
    "ĠIntern": 18373,
    "Ġveh": 5417,
    "Ġwa": 46357,
    "Ġover": 49813,
    "Ġhigh": 27972,
    "Ġfem": 12111,
    "Ġer": 48834,
    "Ġenc": 47765,
    "Ġfail": 46367,
    "Ġprogram": 27147,
    "vertis": 11116,
    "Ġbehav": 39086,
    "az": 44044,
    "ven": 47854,
    "]": 49691,
    "Ġclear": 19490,
    "Ġbig": 24760,
    "Ġbas": 48986,
    "Ġ9": 49883,
    "Ġdemon": 33484,
    "Ġabs": 13462,
    "ibr": 35553,
    "Ġdest": 27142,
    "Ġtem": 45480,
    "Ġthous": 7064,
    "ĠMin": 43531,
    "Ġdr": 44113,
    "Ġens": 38342,
    "Ġrelig": 18624,
    "Ġprim": 46704,
    "Ġsk": 42115,
    "ĠSm": 47993,
    "........": 44019,
    "Ġconf": 47575,
    "qu": 47136,
    "Ġevent": 19402,
    "Ġhelp": 49130,
    "ĠApp": 43181,
    "Ġsecond": 48295,
    "Ġstreng": 49031,
    "Ġfeel": 7411,
    "¿": 3949,
    "Ġsom": 25325,
    "ï": 35011,
    ">": 43479,
    "so": 47017,
    "Ġlaun": 40810,
    "Ġbott": 49681,
    "Ġinit": 29867,
    "Ġrest": 48282,
    "Ġwond": 19039,
    "##": 20762,
    "vil": 3989,
    "ĠÂ": 49405,
    "Ġprom": 37785,
    "Ġalleg": 25861,
    "all": 49202,
    "Ġschool": 36691,
    "Ġprevious": 4016,
    "Ġ(": 49992,
    "ĠCoun": 20768,
    "Ġpict": 17660,
    "ĠPol": 49086,
    "Ġcitiz": 9256,
    "Ġexp": 46211,
    "Ġupd": 19443,
    "Ġcustom": 38067,
    "Ġcrim": 46402,
    "ĠChrist": 49803,
    "Ġrecomm": 34384,
    "Ġfl": 49762,
    "Ġ7": 49950,
    "Ġdown": 48259,
    "Ġwind": 38611,
    "Ġfight": 11163,
    "Ġpred": 46021,
    "Ġfoot": 47757,
    "Ġtrans": 48988,
    "tern": 34442,
    "Ġthere": 44342,
    "Ġdise": 9785,
    "Ġra": 38149,
    "ĠAn": 49833,
    "Ġsee": 12677,
    "ĠPe": 49506,
    "Ġagre": 14131,
    "Ġdeb": 49746,
    "Ġsuccess": 41236,
    "ĠDemocr": 20010,
    "ĠSyri": 26393,
    "Ġown": 22852,
    "Ġshoot": 34740,
    "te": 46558,
    "Ġrecord": 37901,
    "%": 49308,
    "Ġemploy": 26235,
    "ĠPro": 46319,
    "Ġil": 4161,
    "ĠAl": 49684,
    "ĠFl": 48181,
    "ĠComm": 49250,
    "Ġcreat": 49091,
    "Ġend": 46809,
    "Ġvot": 10510,
    "land": 45371,
    "ĠOff": 49494,
    "Ġcirc": 49051,
    "Ġextreme": 4202,
    "Ġopin": 9062,
    "Ġuse": 4210,
    "Ġbud": 43939,
    "Ġback": 47503,
    "Ġep": 49396,
    "Ġestab": 30487,
    "Ġpost": 48297,
    "ĠGerman": 4231,
    "Ġproject": 43141,
    "Ġrespons": 49560,
    "Ġlearn": 45929,
    "âĢĶ": 44584,
    "ĠGe": 49333,
    "Ġreturn": 7769,
    "ĠAustral": 24678,
    "Q": 45926,
    "wh": 39409,
    "cept": 49237,
    "Ġcharg": 31639,
    "Ġcandid": 24259,
    "Ġmanag": 11408,
    "ĠPh": 47886,
    "Ġunderstand": 35995,
    "sec": 22135,
    "Ġsepar": 31300,
    "****": 35370,
    "Ġoper": 28354,
    "ron": 36415,
    "Ġtrad": 31536,
    "Ġmach": 19975,
    "Ġarg": 26243,
    "Ġinflu": 32341,
    "ack": 35798,
    "Ġreve": 40125,
    "Âł": 4348,
    "Ġsol": 49662,
    "Ġ-": 47930,
    "Ġachie": 47474,
    "Ġadvant": 13136,
    "Ġslight": 24662,
    "201": 23089,
    "Ġmost": 4377,
    "Ġneg": 47000,
    "Ġconnect": 34217,
    "Ġexecut": 30377,
    "Ġstruct": 20538,
    "Ġredu": 22661,
    "Ġjo": 15194,
    "Ġsen": 41184,
    "Ġcamer": 8818,
    "Ġcele": 10369,
    "Ġexist": 28699,
    "Ġwill": 49839,
    "ĠSp": 49490,
    "ortun": 13396,
    "Ġanim": 48957,
    "Ġold": 44724,
    "ãĥ": 44661,
    "Ġprofess": 34168,
    "clus": 44052,
    "Ġdoub": 36849,
    "Ġopen": 30658,
    "Ad": 48034,
    "Ġexpl": 38925,
    "ott": 29225,
    "oss": 49554,
    "dd": 33459,
    "ĠFlor": 4489,
    "Ġdep": 45725,
    "ĠSc": 49461,
    "Ġi": 46700,
    "Ġmention": 20607,
    "Ġdefin": 21637,
    "ĠCon": 48251,
    "yr": 48903,
    "Ġhold": 27317,
    "========": 25354,
    "Ġauthor": 42510,
    "Ġcell": 47099,
    "Ġneigh": 11995,
    "Ġdist": 48374,
    "Ġconcern": 4958,
    "Ġpresident": 4532,
    "Ġindepend": 35321,
    "ĠJust": 10544,
    "ili": 49571,
    "pr": 46075,
    "Ġprotect": 36529,
    "ĠServ": 48953,
    "Ġgirl": 4558,
    "Ġmiss": 18042,
    "oy": 35046,
    "ĠTe": 49948,
    "Ġlab": 44906,
    "ĠiT": 4575,
    "Ġstep": 4576,
    "pos": 39752,
    "Ġsmall": 17942,
    "Ġresear": 29811,
    "________": 4586,
    "Ġmar": 45078,
    "Ġsupport": 16188,
    "Ġtest": 47697,
    "Ġmass": 34367,
    "ph": 47863,
    "How": 32179,
    "Ġcop": 35071,
    "ograph": 41225,
    "Ġdig": 46306,
    "ER": 49582,
    "+": 47677,
    "{": 31223,
    "Ġtool": 49894,
    "Ġcris": 42552,
    "ty": 43153,
    "~": 4652,
    "ĠUS": 44385,
    "Ġfind": 6973,
    "Ġfund": 14132,
    "Ġdeg": 25164,
    "Ġdanger": 32992,
    "out": 44007,
    "ĠGu": 48515,
    "Ġbut": 37787,
    "Ġbeaut": 20849,
    "Ġtell": 4894,
    "ĠJapan": 4705,
    "Ġequ": 45168,
    "Ġwatch": 26601,
    "ĠKore": 25744,
    "Ġvictim": 47159,
    "Le": 44304,
    "com": 49070,
    "ĠSecret": 4731,
    "yn": 46179,
    "ĠRes": 44528,
    "Ġconfir": 23111,
    "Ġentire": 21563,
    "Ġpurch": 38867,
    "Ġview": 42551,
    "Ġdrug": 4755,
    "lev": 21868,
    "Ġsto": 43549,
    "ĠJohn": 28717,
    "Ġappropri": 34826,
    "Ġweek": 28014,
    "Ġmethod": 47680,
    "Ġjud": 30206,
    "Ġdoll": 35807,
    "ĠEd": 39628,
    "Ġcommer": 26624,
    "ĠGovern": 40088,
    "ĠHill": 4818,
    "ĠCar": 49013,
    "Ġsw": 49921,
    "Ġfact": 26979,
    "Ġoccur": 40024,
    "Ġinj": 41951,
    "Ġrepe": 42498,
    "Ġconst": 38457,
    "ĠMc": 49379,
    "Ġdiscuss": 19196,
    "Ġregard": 11732,
    "Ġmur": 39319,
    "liam": 4875,
    "hen": 47158,
    "ĠInst": 46231,
    "Ġput": 7329,
    "go": 47611,
    "Ġprop": 48799,
    "Im": 29455,
    "Ġarrest": 33681,
    "Ġident": 42559,
    "Ġthan": 41637,
    "ony": 43357,
    "Ġhundred": 4924,
    "Ġtre": 37860,
    "Ġelect": 46658,
    "ĠRober": 31821,
    "Ġdel": 47201,
    "Ġcal": 49960,
    "Ġphot": 49602,
    "Ġ=": 45856,
    "Ġsuggest": 42534,
    "ĠFor": 49840,
    "Ġher": 49785,
    "Ġhus": 27487,
    "ĠAt": 48787,
    "Ġbal": 47480,
    "Ġsound": 22400,
    "Ġmill": 33351,
    "Ġrad": 44248,
    "Ġsat": 35449,
    "Ġcomb": 40720,
    "Ġconvers": 32371,
    "Ġarri": 34207,
    "Ġkeep": 7367,
    "Ġilleg": 41113,
    "Ġdetermin": 15692,
    "Ġpack": 25300,
    "uck": 38556,
    "ĠWe": 48971,
    "ĠCol": 44665,
    "Ġjust": 45980,
    "Ġfar": 18484,
    "ck": 48853,
    "Ġhy": 45201,
    "Ġno": 45776,
    "ij": 48593,
    "ĠAN": 45924,
    "Ġconflic": 45805,
    "Ġrequire": 8824,
    "rel": 49246,
    "Ġrelative": 5110,
    "Â¯": 5112,
    "ĠIm": 48401,
    "Ġaud": 41718,
    "Ġenforce": 5139,
    "ĠAssoci": 29051,
    "Ġcircum": 45267,
    "ars": 45571,
    "Ġplan": 42096,
    "ĠMicro": 5158,
    "Ġmax": 40453,
    "ĠUk": 35481,
    "ĠSh": 49637,
    "Ġwin": 45509,
    "Ġhealth": 22586,
    "Ġcompet": 36557,
    "Ġap": 47308,
    "ĠAfric": 28803,
    "ĠPal": 44623,
    "ĠSoc": 15617,
    "ans": 49537,
    "Ġintrodu": 33727,
    "ĠJe": 35546,
    "Ġaccount": 42372,
    "Ġhon": 45615,
    "}": 38107,
    "ĠOn": 34478,
    "Ġexerc": 25550,
    "ĠEx": 49850,
    "Ġscient": 11189,
    "Ġlegisl": 44585,
    "Ġmain": 49859,
    "Ġleaders": 5276,
    "ĠIslam": 36623,
    "Ġmag": 38365,
    "ĠPr": 37457,
    "ind": 47761,
    "Ġabsolute": 5288,
    "Ġfour": 28912,
    "Ġpresent": 39342,
    "resp": 25954,
    "por": 38596,
    "Ġaltern": 39368,
    "Ġobject": 35466,
    "ĠAnd": 34287,
    "Ġsignificant": 5311,
    "pro": 48438,
    "ik": 49639,
    "ĠJew": 28896,
    "Ġmot": 44149,
    "Ġstri": 49552,
    "ĠLou": 48097,
    "Ġprep": 46596,
    "Ġlist": 34764,
    "ĠSup": 5362,
    "Ġ)": 48345,
    "ruct": 32020,
    "Ġphil": 27895,
    "Ġappl": 44993,
    "Ġhous": 23452,
    "ffic": 35335,
    "ãģ": 46522,
    "stand": 20052,
    "ĠAngel": 48631,
    "ĠThom": 32170,
    "igr": 41920,
    "ĠDist": 46312,
    "cell": 46087,
    "ĠGr": 49207,
    "Ġaffect": 17441,
    "itution": 5422,
    "Ġlarge": 42473,
    "Ġbusiness": 34388,
    "ĠFound": 45557,
    "Ġmaterial": 5441,
    "Ġclos": 31894,
    "J": 49974,
    "Ġtax": 44794,
    "Ġdro": 46493,
    "ste": 44567,
    "Ġapparent": 5474,
    "Ġspecific": 40508,
    "ost": 39563,
    "hip": 5493,
    "Ġappre": 31632,
    "Ġpar": 42032,
    "ĠMart": 32253,
    "ĠMed": 41916,
    "Ġform": 49716,
    "Ġsold": 42554,
    "Ġrap": 38211,
    "ĠJes": 49935,
    "Ãĥ": 5553,
    "Ġwar": 49791,
    "ÃĥÃĤ": 5560,
    "Ġhas": 49289,
    "ĠMex": 36528,
    "ĠSand": 44745,
    "ĠComp": 47410,
    "ĠHar": 48550,
    "Ġrev": 47020,
    "Ġpercent": 37639,
    "Ġtrou": 36936,
    "ner": 35610,
    "ash": 38280,
    "ĠDirect": 47171,
    "Ġfell": 37645,
    "app": 47243,
    "ĠCarol": 28782,
    "Ġcircumst": 24924,
    "raz": 36154,
    "Ġexperien": 13201,
    "Ġsubst": 43979,
    "ĠBo": 48351,
    "Ġdom": 30396,
    "Ġchem": 49711,
    "Ġconserv": 33678,
    "ĠDef": 43907,
    "Ġtemper": 35885,
    "Ġconduct": 38951,
    "Ġpull": 15939,
    "ont": 38309,
    "V": 47655,
    "Ġlic": 45220,
    "Ġimag": 33885,
    "ick": 39168,
    "Ġsurpr": 23817,
    "ĠCle": 42231,
    "Ġpay": 45436,
    "ĠMark": 45758,
    "semb": 5742,
    "rom": 49973,
    "Ġpers": 35290,
    "ry": 48801,
    "gy": 39928,
    "ĠVirgin": 5770,
    "Ġswe": 42147,
    "ĠFranc": 11900,
    "Ġlot": 21843,
    "Ġnews": 16728,
    "ĠEn": 48732,
    "su": 18353,
    "gh": 45835,
    "Ġmat": 48236,
    "Ġbring": 5824,
    "ĠIsrael": 20882,
    "ĠSpe": 45723,
    "Ġexam": 37050,
    "Ġclass": 48231,
    "Ġpan": 37970,
    "Ġestim": 39284,
    "Ġvol": 46042,
    "Ġtwe": 39017,
    "Ġtal": 17799,
    "Ph": 49425,
    "ĠMag": 44374,
    "Ġbeg": 38354,
    "Ġenvironment": 33877,
    "Ġord": 43350,
    "Ġwalk": 6552,
    "AT": 47216,
    "Ġmanufact": 46051,
    "Ġselect": 40318,
    "Ġult": 49706,
    "ribut": 5914,
    "Tr": 48230,
    "Ġeven": 36864,
    "ĠBit": 34728,
    "ĠAm": 49906,
    "Ġobvious": 5934,
    "Ġsymb": 18720,
    "Ġair": 45516,
    "ĠRich": 48954,
    "Ġneighbor": 19396,
    "Ġinn": 45128,
    "ĠChar": 44604,
    "ure": 49596,
    "Ġimm": 47545,
    "Ġcontr": 39214,
    "ge": 49527,
    "Ġaccept": 17923,
    "Ġ199": 9994,
    "Ġwere": 6049,
    "In": 44396,
    "ani": 6066,
    "Ġrepl": 35950,
    "Ġemer": 35792,
    "ĠPalest": 17008,
    "Ġautom": 47041,
    "Ġrout": 41846,
    "ĠPar": 49154,
    "ï¿½": 6098,
    "Ġcorpor": 11762,
    "clud": 13700,
    "ĠIt": 33602,
    "Ġslow": 35366,
    "Ġattempt": 9106,
    "ĠCont": 49595,
    "Ġess": 26871,
    "Ġreason": 37602,
    "Ġconsider": 18251,
    "Ġill": 44774,
    "£": 6153,
    "Ġnumer": 35320,
    "rast": 6155,
    "Ġserious": 31840,
    "Ġrefer": 44030,
    "Ġconsist": 19699,
    "ew": 43358,
    "Ġè": 6183,
    "Ġbrow": 25420,
    "Ġsudden": 6196,
    "Ġsomew": 7127,
    "ult": 44563,
    "Ġchalleng": 48857,
    "Ġsett": 43429,
    "ES": 43756,
    "Ġfac": 44846,
    "Ġincreasing": 6226,
    "ĠWilliam": 34719,
    "Ġadult": 6235,
    "ht": 38417,
    "Ġdetail": 22721,
    "Ġpick": 46207,
    "ld": 34954,
    "Ġboy": 46623,
    "Ġobserv": 42295,
    "Ġz": 48737,
    "iven": 6262,
    "ĠAg": 44326,
    "Ġspokes": 12007,
    "Ġstrugg": 12511,
    "omet": 46801,
    "Ġcateg": 17596,
    "Ġgun": 49219,
    "ĠSte": 23038,
    "Ġfair": 25352,
    "Ġtro": 42122,
    "Ġbatter": 13336,
    "Ġexc": 48814,
    "Ġdestroy": 40801,
    "Ġshould": 12195,
    "Ġsym": 6330,
    "ĠTor": 46940,
    "het": 31531,
    "Ġinstall": 49599,
    "An": 44719,
    "ĠJack": 44636,
    "Ġsqu": 48616,
    "Ġresist": 44777,
    "Ġspl": 32139,
    "Ġcut": 45361,
    "Ġexcept": 15058,
    "Get": 20315,
    "orm": 29711,
    "Ġhouse": 6386,
    "Ġregul": 39219,
    "Ġperspect": 22327,
    "Ġesc": 32440,
    "Ġhead": 48328,
    "Ġafter": 44821,
    "ĠMay": 38463,
    "ple": 46875,
    "Ġdi": 47941,
    "Ġlink": 45690,
    "ath": 49981,
    "Ġden": 47236,
    "Ġapprox": 40619,
    "Ġdisapp": 28612,
    "onym": 6449,
    "ĠII": 6456,
    "Ġinstit": 32699,
    "Ġphilos": 24603,
    "Ġour": 16648,
    "use": 6489,
    "Ġhistor": 21007,
    "Ġsuc": 6503,
    "Ġwide": 6513,
    "Ġcy": 36563,
    "Ġfrequ": 19743,
    "ĠQu": 48632,
    "Ġcomfort": 33973,
    "sc": 48473,
    "Ġparticip": 49312,
    "ious": 6564,
    "ĠChe": 47464,
    "Ġregist": 47742,
    "Ġsent": 46653,
    "oun": 45727,
    "Ġassist": 29233,
    "ev": 48600,
    "Ġdat": 19828,
    "ĠOh": 6580,
    "ug": 45404,
    "Ġdog": 40682,
    "\\": 49523,
    "Ġlawy": 9071,
    "Ġmen": 39324,
    "Ġamount": 29753,
    "Ġcarry": 6617,
    "Ġdecl": 42539,
    "Ġpun": 32697,
    "Ġhard": 49349,
    "Ġport": 49447,
    "aw": 48586,
    "ĠOr": 49104,
    "ĠVal": 48696,
    "Ġeffic": 19924,
    "Ġconsequ": 44522,
    "tw": 31589,
    "Ġrelationship": 6703,
    "ĠYou": 17327,
    "Ġpropos": 40488,
    "uild": 6708,
    "OR": 49442,
    "Ġcoll": 46337,
    "ax": 40609,
    "Ġcontrol": 6718,
    "Ġmere": 6719,
    "Ġath": 15821,
    "AN": 43409,
    "Ġkind": 46194,
    "Ġsuff": 35233,
    "Al": 48922,
    "Ġrequest": 20368,
    "Ġconsum": 36970,
    "Ġemot": 10570,
    "Ġgood": 39608,
    "ĠLin": 44545,
    "Ġbroad": 44615,
    "Ġfield": 49488,
    "Ġauth": 33686,
    "AL": 43816,
    "Ġdeath": 6785,
    "ĠMuslim": 6790,
    "ĠUkrain": 48859,
    "Ġwel": 35226,
    "Ġarch": 40180,
    "Ġrestaur": 10553,
    "Ġdisco": 27217,
    "ger": 29975,
    "Ġrespond": 33084,
    "Ġyoung": 40689,
    "ĠAc": 29550,
    "Ġpus": 19815,
    "Ġmarket": 40809,
    "Ī": 41807,
    "ĠGet": 17812,
    "ĠTur": 28193,
    "Ġperfect": 41900,
    "Ġprec": 38506,
    "ĠCons": 46614,
    "Ġvirt": 41021,
    "ĠSer": 42516,
    "Ġclose": 6918,
    "ĠLab": 44991,
    "Ġaccur": 14096,
    "Ġbon": 17313,
    "Ġcompar": 30933,
    "ĠJose": 6957,
    "Ġdeal": 28788,
    "AR": 48039,
    "ĠAs": 46394,
    "Ġtop": 39612,
    "pect": 37791,
    "Ġded": 39128,
    "Ġsong": 7004,
    "esc": 49886,
    "Ġsche": 44311,
    "Ġliber": 48036,
    "Ġpublic": 42477,
    "Ġheav": 45313,
    "âĶ": 47231,
    "ĠSw": 48153,
    "Ġdiv": 43118,
    "ĠNet": 27607,
    "ĠBus": 7065,
    "Ġrough": 7068,
    "Ġacknow": 11872,
    "K": 49426,
    "Ġwat": 36161,
    "Ġsurround": 36295,
    "Ġ<": 42241,
    "Ġliter": 30976,
    "Don": 24598,
    "Ġfew": 7125,
    "Ġstrong": 12586,
    "Ġpen": 41518,
    "Sc": 44178,
    "Ġfra": 41635,
    "âĢ¦": 49993,
    "Ġvill": 25008,
    "ĠBe": 49485,
    "Ġyes": 7160,
    "Ġterror": 10254,
    "ĠSaud": 33103,
    "Ġaw": 45166,
    "Ġthreat": 19946,
    "Americ": 17910,
    "ĠHist": 47898,
    "It": 45441,
    "Ġmist": 48356,
    "ĠDiv": 46639,
    "Ġsympt": 25738,
    "Ġfall": 38849,
    "Ġexplan": 44487,
    "red": 48199,
    "Ġris": 17195,
    "Ġreported": 7223,
    "Ġsubject": 18833,
    "ian": 46215,
    "Ġunlike": 7230,
    "ĠColor": 7237,
    "Ġshe": 48161,
    "ĠIre": 7262,
    "Ġpain": 40995,
    "ĠKing": 35526,
    "Ġsched": 26670,
    "Ġprote": 15313,
    "Ġnewsp": 14486,
    "yth": 34598,
    "Ġfeed": 21063,
    "Ġstret": 23432,
    "Ġhot": 49925,
    "ĠQue": 14523,
    "Ġequival": 40000,
    "ef": 40772,
    "Ġ`": 7304,
    "Ġrecogn": 30009,
    "ĠSov": 30807,
    "Tw": 33841,
    "Ġpattern": 7317,
    "Ġphen": 46919,
    "Ġprocess": 37713,
    "Ġlight": 18445,
    "ĠBro": 46204,
    "Ġindic": 28850,
    "Ġaspect": 7357,
    "Ġtrig": 47682,
    "per": 49151,
    "arg": 48885,
    "Ġ0": 8875,
    "tr": 46029,
    "Ġpark": 19329,
    "ĠPak": 17552,
    "up": 45385,
    ";": 46701,
    "Ġhar": 45481,
    "Ġterrit": 22159,
    "Ġing": 47683,
    "Ġoverw": 49057,
    "Ġsac": 48826,
    "ĠSil": 26099,
    "Ġsecret": 49176,
    "ĠDevelop": 33897,
    "Ġwall": 39073,
    "Ġdrink": 40272,
    "Ġcollect": 26413,
    "gor": 7472,
    "Ġinstruct": 33412,
    "Ġcritic": 26561,
    "Ġut": 49423,
    "Ġteach": 19309,
    "Ġdeep": 46284,
    "Ġperman": 14788,
    "ĠIS": 33550,
    "Ġste": 49045,
    "ret": 42653,
    "Ġaf": 43991,
    "Ġteacher": 7544,
    "####": 7549,
    "Ġcolle": 15753,
    "Ġprin": 47815,
    "Ġimplement": 25249,
    "ĠAP": 43249,
    "play": 32144,
    "Ġrepeated": 7575,
    "Ġlik": 41424,
    "ĠCath": 40381,
    "Ġtick": 39957,
    "Ġalong": 7593,
    "ĠGeorg": 45007,
    "isc": 45842,
    "Ġsurv": 36162,
    "ĠEduc": 29783,
    "iam": 12918,
    "Ġur": 38373,
    "Ġquarter": 27613,
    "Ġencour": 27274,
    "ins": 48532,
    "Ġcommit": 19150,
    "Ġ:": 46971,
    "Ġsubs": 47787,
    "Ġcapt": 48717,
    "Ġalleged": 7655,
    "ĠEp": 48123,
    "Ġwonder": 32883,
    "ĠAri": 33109,
    "ĠDes": 40790,
    "ern": 44675,
    "Ġang": 48718,
    "ĠConst": 41822,
    "ĠStep": 39389,
    "Ġfol": 44434,
    "Ġtarget": 10567,
    "Ġinform": 49999,
    "Ġ12": 37419,
    "idel": 22836,
    "Ġregular": 47873,
    "Ġprinc": 26048,
    "ĠRom": 48784,
    "ĠAb": 48965,
    "Ġdemocr": 48262,
    "Ġrepresent": 24357,
    "Ar": 45975,
    "Ħ": 7753,
    "Ġannounce": 23754,
    "Ġrefuge": 12285,
    "Ġhad": 7765,
    "Ġpil": 22922,
    "Ġbreat": 39290,
    "ĠAfghan": 7782,
    "ink": 48700,
    "col": 49648,
    "X": 43122,
    "Ġelse": 7802,
    "ĠGl": 49128,
    "Pe": 43190,
    "Ġlo": 45979,
    "Ġrat": 48560,
    "ĠEm": 44017,
    "Ġsust": 37536,
    "Ġincred": 7876,
    "Ġreview": 37568,
    "ach": 43448,
    "ĠCommun": 39372,
    "ĠBr": 48730,
    "âĸ": 47275,
    "the": 43555,
    "AC": 43045,
    "ĠAtt": 48958,
    "ĠWil": 49776,
    "ĠProf": 43538,
    "Ġatmosp": 20683,
    "ĠPut": 39701,
    "Ġrespect": 40922,
    "Ġfif": 17025,
    "Cl": 47780,
    "ĠInt": 49197,
    "âĢĶâĢĶ": 7929,
    "Ġscen": 42996,
    "Ġcry": 17532,
    "Ġadop": 22613,
    "off": 47640,
    "ĠPac": 31382,
    "ten": 42950,
    "ĠJer": 47527,
    "Ġhor": 39655,
    "Ġcompl": 47979,
    "ĠSpr": 43281,
    "ĠRet": 42769,
    "ial": 7976,
    "Ġacad": 21276,
    "Ġclot": 45106,
    "St": 49073,
    "Ġdraw": 43330,
    "0000": 44553,
    "adel": 8018,
    "ĠGuard": 46735,
    "reg": 49118,
    "ĠSo": 41172,
    "ĠGree": 24804,
    "ĠDo": 46323,
    "Ġarm": 43883,
    "Des": 42268,
    "Ġtrack": 29758,
    "Ġenjoy": 23079,
    "Ġagg": 43827,
    "Ġrare": 8110,
    "val": 39473,
    "roll": 47853,
    "Ġsequ": 46059,
    "Ġcontrovers": 36257,
    "Ġconclud": 30828,
    "Ġconfig": 25157,
    "Ġwithd": 25263,
    "Ġsam": 49542,
    "ĠGold": 45400,
    "********": 45813,
    "ĠZ": 48808,
    "âĶĢ": 8163,
    "Be": 49547,
    "ĠCor": 48850,
    "mon": 49317,
    "Ġrac": 47978,
    "ps": 31155,
    "ever": 8183,
    "ĠThere": 8192,
    "ĠPrin": 33945,
    "Ġsurve": 16000,
    "Ġsil": 37831,
    "Ġunus": 23453,
    "Ġprior": 18831,
    "IC": 42455,
    "ask": 30208,
    "miss": 45433,
    "ĠDet": 46242,
    "Ġfound": 43681,
    "hes": 39560,
    "ĠPalestin": 12635,
    "ĠHolly": 8247,
    "Ġgen": 48606,
    "Ġupgr": 25230,
    "ĠDis": 48601,
    "erv": 35036,
    "Ġbare": 8268,
    "oen": 8283,
    "ose": 8287,
    "ĠCo": 46384,
    "ĠMan": 49500,
    "Ġbit": 48411,
    "Ġincor": 11236,
    "ĠUs": 49814,
    "Ġspirit": 45064,
    "Ġadvert": 32485,
    "Ġimprove": 8770,
    "Ġsens": 49967,
    "ĠAcad": 31166,
    "ð": 47473,
    "Ab": 32142,
    "Ġcontract": 37771,
    "Ġmount": 30535,
    "ĠCapt": 31538,
    "Ġreject": 28062,
    "less": 17332,
    "Ġ|": 43978,
    "ĠHen": 44230,
    "Ġunc": 44989,
    "af": 34404,
    "Ġcontribut": 20165,
    "omm": 48735,
    "vious": 8392,
    "rog": 48431,
    "Ġfranch": 27833,
    "Ġclin": 45708,
    "ĠPer": 38251,
    "epend": 14836,
    "Ġprem": 32795,
    "ĠIr": 48215,
    "Ġworld": 42994,
    "Ġnarr": 45935,
    "ĠAdminist": 29793,
    "Ġcert": 45870,
    "pir": 10259,
    "Ġengine": 23116,
    "ĠFore": 48990,
    "Ġtit": 47792,
    "Ġdifficult": 12901,
    "~~": 8473,
    "ĠBar": 47157,
    "Ġrestrict": 46820,
    "ĠCru": 49464,
    "Ġelectric": 8489,
    "ĠAw": 39358,
    "ĠHer": 47829,
    "},": 8507,
    "Ġproced": 27676,
    "intend": 20820,
    "Ġcru": 44084,
    "Ġwhen": 43757,
    "IS": 42191,
    "Ġcommon": 33233,
    "Ġhyp": 48386,
    "iscons": 8561,
    "Ġrid": 8562,
    "Ġvulner": 23550,
    "ÂłÂł": 33222,
    "ĠRad": 48583,
    "ĠScot": 46500,
    "Ġdiscrim": 47957,
    "Ġsubsequ": 12157,
    "Ġfant": 23602,
    "Ġpet": 37189,
    "Ġign": 44539,
    "ĠPhil": 46650,
    "................": 48874,
    "Ġelig": 19814,
    "Ġinstr": 12579,
    "Ġphilosoph": 45245,
    "ĠMo": 48177,
    "ĠNAS": 48896,
    "Ġchair": 8645,
    "Ġrapid": 8647,
    "Ġsubstant": 28325,
    "anche": 20109,
    "Ġassess": 23916,
    "Ġdynam": 32111,
    "ĠGod": 37849,
    "ĠZeal": 8681,
    "ãĤ": 48203,
    "ugh": 8696,
    "Ĥ": 43263,
    "Ġ}": 34694,
    "Ġshort": 45126,
    "ĠJud": 49676,
    "Ġreach": 8723,
    "Â¯Â¯": 8725,
    "ino": 40309,
    "ĠTechn": 49431,
    "ĠChild": 40737,
    "ĠDam": 45852,
    "ĠStand": 22238,
    "Ġaim": 17017,
    "angu": 32958,
    "Ġmedic": 30126,
    "Ġfood": 8758,
    "Ġlow": 49332,
    "Ġmind": 46305,
    "Ġarr": 41623,
    "Ġintellect": 38931,
    "Ġmechan": 47623,
    "bre": 49450,
    "Ġbar": 42322,
    "man": 47864,
    "Pol": 8784,
    "Ġjournal": 34972,
    "Ġnom": 48578,
    "IT": 45889,
    "ĠHun": 32112,
    "Ġbelief": 8801,
    "Ġdisplay": 19152,
    "ĠMos": 42570,
    "ĠMr": 8819,
    "omb": 41373,
    "Ġloss": 8834,
    "Ġsuper": 47226,
    "Ġtherap": 39140,
    "ĠMod": 43413,
    "Ġconv": 46713,
    "che": 49661,
    "Ġsch": 19736,
    "ĠLat": 35539,
    "Ġminor": 15302,
    "ocol": 8885,
    "Ġappreci": 18908,
    "GB": 8891,
    "Ġguarant": 18771,
    "Ġlog": 49451,
    "ĠPok": 35902,
    "ĠWith": 12256,
    "Ġbehavi": 38720,
    "ĠKe": 45905,
    "prof": 32908,
    "arr": 47685,
    "Ġround": 48135,
    "mor": 43656,
    "Ġspeak": 11381,
    "rop": 28083,
    "bur": 31706,
    "Ġpoll": 42085,
    "ĠCur": 46045,
    "Ġowners": 8983,
    "ĠPri": 37231,
    "ĠGal": 32167,
    "ĠAnt": 47534,
    "Ġhuman": 47569,
    "sylv": 9015,
    "ĠSqu": 48544,
    "arch": 48559,
    "Ġbase": 9028,
    "Ġcontain": 36894,
    "let": 47038,
    "Ġveter": 38180,
    "Ġinterview": 39622,
    "ĠRev": 47840,
    "IV": 42217,
    "ĠMatt": 35852,
    "ĠColumb": 14684,
    "Ġestablish": 32973,
    "Ġcas": 39600,
    "Ġfing": 35421,
    "Ġfram": 30556,
    "Ġtransport": 32076,
    "Ġaware": 9104,
    "ÃĥÃĤÃĥÃĤ": 9109,
    "ĠAtl": 34524,
    "Ġfuck": 46478,
    "Ġans": 9118,
    "Ġrob": 46907,
    "Ġcorrect": 46279,
    "Ġgraph": 28515,
    "Ġground": 48204,
    "Ġsan": 39703,
    "Ġingred": 18479,
    "Ġbrother": 9142,
    "ative": 9149,
    "Ġaddress": 13338,
    "Ġsuppl": 20244,
    "Ġconvin": 9176,
    "ĠPhot": 43554,
    "Ġdownt": 45577,
    "sh": 49370,
    "ĠX": 49103,
    "Ġeth": 39421,
    "Ġbreak": 46153,
    "br": 49079,
    "Ġ*": 46611,
    "Ġvir": 20292,
    "Ġwhere": 32780,
    "ram": 43336,
    "Ġple": 35141,
    "Ġacqu": 47497,
    "Ġburn": 45772,
    "Ġfold": 38489,
    "ĠIll": 42129,
    "ĠGodd": 47131,
    "Ġwelf": 9235,
    "Ġenh": 32224,
    "yp": 9242,
    "ĠAre": 38407,
    "Ġcann": 39649,
    "ĠDie": 9245,
    "Ġcover": 9250,
    "Ġroom": 9264,
    "ia": 32845,
    "gr": 48015,
    "Ġphr": 19889,
    "Ġplatform": 9299,
    "Ġdemonstr": 24761,
    "Ġperiod": 27203,
    "Ġland": 47457,
    "Ġsal": 48901,
    "ĠPenn": 25710,
    "Ġkit": 47929,
    "ixt": 46295,
    "ĠPat": 43060,
    "Ġ>": 28470,
    "Ġemb": 49680,
    "ile": 48191,
    "ĠVeg": 30055,
    "uzz": 9370,
    "Ġvari": 25109,
    "ĠMount": 20869,
    "Ġload": 39958,
    "vers": 49334,
    "Ġthrow": 12287,
    "Ġegg": 9398,
    "Ġstay": 10334,
    "ĠAll": 48831,
    "ĠTurk": 9408,
    "Ġfab": 39278,
    "Ġbasket": 9414,
    "ĠArab": 32826,
    "Ġassum": 18278,
    "Ġvisit": 49619,
    "Ġcharacter": 34149,
    "//": 20124,
    "Ġtestim": 49649,
    "Ġoverwhel": 43079,
    "Ġroad": 40077,
    "Ġsho": 33422,
    "Ġentertain": 9484,
    "Ġâ": 42819,
    "ĠCap": 40452,
    "eder": 9493,
    "Ġinvolve": 9495,
    "Ġanx": 17861,
    "Ġtack": 35202,
    "achus": 9515,
    "Ġdefe": 28979,
    "EC": 36345,
    "Ġclub": 47763,
    "Che": 9532,
    "ides": 42031,
    "ier": 44193,
    "lah": 9547,
    "??": 28103,
    "Ġenorm": 35750,
    "Ġcomprehens": 35660,
    "Ġfarm": 45468,
    "Rel": 46862,
    "Ġproport": 26856,
    "Ġnegoti": 48939,
    "ĠBat": 38362,
    "Ġlegit": 36236,
    "net": 47860,
    "Ġcompens": 34049,
    "Ġpunish": 35263,
    "Ġaccess": 28714,
    "Ġprefer": 40854,
    "irlf": 9617,
    "Ġby": 33592,
    "ĠLeg": 49124,
    "Ġsuspect": 11571,
    "ĠPokÃ©": 9632,
    "Ġappoint": 47425,
    "Ġexpand": 11326,
    "Ġmonitor": 9649,
    "Ġcoal": 9651,
    "Ġstop": 9656,
    "Ġhol": 47009,
    "Bl": 47265,
    "ĠMar": 49467,
    "Ġmembers": 9676,
    "Ġsole": 26067,
    "Ġextra": 36572,
    "IG": 17805,
    "Ġsusp": 47244,
    "ĠPrem": 47180,
    "ĠAnth": 32643,
    "ĠFoot": 9702,
    "Ġabandon": 38713,
    "Ġcampaign": 46964,
    "bl": 48364,
    "âĸĪ": 9713,
    "ĠDri": 36322,
    "Ġton": 26585,
    "New": 9725,
    "ĠProt": 48699,
    "Ġaccompl": 12758,
    "Ġresc": 48074,
    "Down": 9747,
    "ĠCr": 45925,
    "Ġparam": 43287,
    "ĠAlex": 43820,
    "hem": 46303,
    "ien": 37683,
    "Ġstrateg": 33980,
    "fl": 49366,
    "On": 14184,
    "================": 9797,
    "ĠContin": 48261,
    "Ġunex": 31031,
    "ith": 46997,
    "Ġuncle": 9806,
    "AM": 43615,
    "Ġdecre": 23775,
    "Ġbird": 9832,
    "Ġdram": 43717,
    "--------------------------------": 46977,
    "Ġunivers": 44496,
    "old": 48704,
    "ĠWalk": 21021,
    "nt": 41386,
    "ĠWhe": 37161,
    "ĠUp": 27835,
    "ĠMass": 40347,
    "ool": 10258,
    "lic": 48936,
    "back": 49723,
    "Ġ'": 45828,
    "els": 32240,
    "Ġmir": 39815,
    "12": 27295,
    "ĠArt": 45653,
    "ĠLew": 9919,
    "Ġbatt": 45499,
    "!!": 49929,
    "ĠUt": 40831,
    "iff": 41767,
    "ĠFre": 45073,
    "Ġaccord": 9958,
    "ĠSum": 36521,
    "Ġinnoc": 45172,
    "Ġiniti": 39895,
    "________________": 32686,
    "Ġconvent": 21141,
    "Ġblock": 43550,
    "ĠDig": 44000,
    "Ä": 45940,
    "Ġpregn": 33338,
    "Ġtouch": 39710,
    "ĠCall": 32422,
    "Ġfear": 42902,
    "Ĩ": 9998,
    "Col": 39215,
    "Up": 44693,
    "Ob": 48946,
    "umb": 27894,
    "ĠIndian": 19107,
    "Ġhero": 48406,
    "For": 39491,
    "Me": 47129,
    "sen": 10043,
    "Ġrank": 16650,
    "Ġdead": 39013,
    "ä": 46224,
    "Ġdocument": 42759,
    "ree": 10061,
    "ĠAM": 38013,
    "Ġmarg": 43853,
    "Ġdifferent": 47288,
    "Ġsearch": 10087,
    "Ġfunction": 48155,
    "ĠBalt": 32627,
    "alt": 10100,
    "Ġconcent": 37112,
    "Ġjur": 28537,
    "Ġspell": 10122,
    "Ġcivil": 45350,
    "ĠBel": 49473,
    "ĠExec": 37242,
    "ĠOffic": 27989,
    "Ġreserv": 24467,
    "ĠSam": 47722,
    "Ġprint": 44617,
    "ĠKenn": 23377,
    "Ġodd": 31159,
    "Ġsure": 10148,
    "repre": 10151,
    "ĠESP": 10154,
    "Ġpartners": 22612,
    "ĠIraq": 34701,
    "ĠStud": 14627,
    "Ġgrad": 44290,
    "Ġnomine": 26201,
    "ĠOk": 42783,
    "ĠSoft": 10187,
    "Ġweak": 34713,
    "Ġbrill": 37196,
    "Ġhom": 43900,
    "ĠDown": 49363,
    "hold": 18961,
    "ĠBern": 37329,
    "ĠHel": 48319,
    "Ġcalcul": 43452,
    "ĠSar": 40202,
    "Ġoccasion": 10236,
    "Ġbul": 39137,
    "Av": 48742,
    "ĠCorpor": 25785,
    "Ġconscious": 30155,
    "ĠNot": 45428,
    "200": 33215,
    "Ġburd": 26872,
    "Ġcere": 32903,
    "put": 48585,
    "ĠOnt": 10298,
    "usal": 10300,
    "Ġharass": 33855,
    "itz": 10302,
    "Ġbox": 45814,
    "Ġtim": 47830,
    "Ġprison": 16979,
    "Ġtow": 49190,
    "Ġprecise": 10327,
    "Ġkey": 37077,
    "Ġpsych": 39450,
    "Ġaccomp": 13618,
    "ĠExp": 49113,
    "part": 47758,
    "Ġwedd": 37122,
    "Ġqual": 40438,
    "ass": 46380,
    "Ġdream": 28113,
    "Ġcheck": 41604,
    "Ġcelebr": 24283,
    "Ġsav": 47666,
    "ĠDen": 43341,
    "tab": 10403,
    "Ġpurs": 18934,
    "Ġsem": 45705,
    "ĠAff": 19003,
    "ĠEl": 48312,
    "enn": 47896,
    "Ġunemploy": 20766,
    "Ch": 49789,
    "Ġbi": 48475,
    "ĠAdd": 39932,
    "Ser": 42083,
    "lim": 48941,
    "Ġrock": 37804,
    "Ġcertific": 20580,
    "ĠIran": 34353,
    "AS": 42572,
    "ĠSwed": 13768,
    "Ġtiss": 21124,
    "Ġmyster": 42274,
    "Ġdial": 23382,
    "ĠPort": 44430,
    "mark": 33907,
    "Ġparalle": 30359,
    "Ġphenomen": 27932,
    "Ġretire": 43476,
    "tain": 10483,
    "ĠChampions": 24527,
    "ĠRed": 49165,
    "Ġfocus": 10504,
    "Ġrecommend": 15347,
    "Ġmoder": 46764,
    "ĠMary": 10514,
    "ĠAcc": 46307,
    "ĠInc": 39664,
    "Ġinterpret": 25891,
    "Ġdepend": 21148,
    "Ġfat": 46036,
    "Ġcook": 38128,
    "Ġcust": 33447,
    "ĠMor": 43794,
    "Ġacknowled": 47927,
    "He": 39341,
    "Ġtact": 48641,
    "ĠCamer": 44313,
    "new": 10572,
    "Ġtweet": 28735,
    "ĠViet": 23363,
    "Ġconcept": 49594,
    "Ġvo": 47385,
    "ĠHaw": 49965,
    "ĠMach": 36526,
    "II": 10600,
    "Ġathlet": 35436,
    "ĠTem": 47870,
    "Ġgold": 10606,
    "Ġlob": 43402,
    "Ġlif": 46188,
    "Ġcogn": 30864,
    "ĠRub": 42717,
    "Ġast": 48527,
    "Ġnerv": 43069,
    "Ġafford": 38726,
    "ĠAren": 10682,
    "Ġimpl": 40485,
    "Ġder": 48514,
    "ĠSur": 47638,
    "Ġbirth": 47890,
    "Ġspect": 43638,
    "Ġarchitect": 45364,
    "arm": 40201,
    "Ġattract": 43070,
    "ĠMore": 43014,
    "TH": 43304,
    "Ġdon": 49830,
    "ĠFant": 27693,
    "Ġhun": 42729,
    "oid": 47247,
    "Ġpredict": 45486,
    "Pl": 43073,
    "Ġimportant": 10748,
    "Ġremark": 24743,
    "Ġelim": 32056,
    "Ġadvoc": 25573,
    "ĠSim": 47337,
    "Ġfle": 39184,
    "Ġsleep": 44008,
    "Ġ/": 42383,
    "Ġdelay": 34966,
    "Ġtrem": 10784,
    "Ġinnov": 47661,
    "ĠPoint": 10790,
    "Ġdisp": 49697,
    "ird": 10794,
    "ION": 10798,
    "ĠEnter": 40998,
    "Ġtransl": 34410,
    "Ġbene": 45344,
    "abet": 10809,
    "ĠEvery": 47946,
    "ĠBru": 27352,
    "ors": 49335,
    "Ġball": 40343,
    "Ġ198": 14490,
    "Ġcooper": 34707,
    "Ġwal": 29353,
    "Ġdismiss": 48755,
    "ĠConserv": 23447,
    "Ġprofession": 27794,
    "Ġguid": 40633,
    "unt": 49350,
    "ĠAut": 41480,
    "ĠUlt": 46060,
    "ih": 48151,
    "Ġtransfer": 25885,
    "Ġbur": 48105,
    "gg": 32794,
    "yl": 37625,
    "Ġcorrespond": 24611,
    "ĠDou": 15541,
    "lam": 49778,
    "Ġske": 43115,
    "ex": 47524,
    "Wind": 27448,
    "Ġsatell": 20117,
    "ĠMe": 49381,
    "Ġtob": 10964,
    "Ġgather": 43354,
    "ĠJon": 45192,
    "ĠSaf": 23043,
    "Ġbad": 37328,
    "Ġcontact": 27135,
    "Ġlimit": 43921,
    "ble": 47720,
    "Ġtrend": 44238,
    "ĠCa": 46610,
    "Ġenthus": 16876,
    "Ġexplos": 22916,
    "ĠEconom": 36364,
    "Ġconven": 39573,
    "Ġcounter": 49788,
    "ĠTenn": 36958,
    "OC": 11035,
    "Ġoverse": 42842,
    "Ġdispl": 29103,
    "cont": 45709,
    "Ġtravel": 39913,
    "Ġhosp": 11046,
    "ĠFin": 45022,
    "Ġdefend": 16502,
    "Ġstream": 39418,
    "ĠBer": 44912,
    "uk": 48554,
    "ĠCast": 39030,
    "Ġbug": 11061,
    "li": 11680,
    "Ġgame": 11072,
    "ĠWar": 49143,
    "Ġir": 47282,
    "ĠNAT": 11077,
    "Ġdemand": 12029,
    "Ġaward": 45861,
    "vern": 47188,
    "ĠKh": 44289,
    "Ġextraord": 31744,
    "Ġdesk": 11109,
    "ĠAnton": 11111,
    "Ġmanufacture": 11299,
    "Ġsatisf": 44849,
    "Ġcoord": 35194,
    "Val": 46884,
    "ĠPlan": 43545,
    "ĠFurther": 11144,
    "Ġ&": 11150,
    "Ġdomin": 43611,
    "ĠAuthor": 35008,
    "Ġ--": 14355,
    "Ġtox": 42771,
    "spe": 47095,
    "Ġtele": 48030,
    "aun": 43726,
    "Ġwitness": 30866,
    "Ġquestion": 28046,
    "ĠBre": 46118,
    "ĠRem": 45954,
    "ene": 45754,
    "iat": 42456,
    "ĠId": 41510,
    "Ġridic": 47008,
    "Ġsubsc": 45539,
    "Ġhost": 38827,
    "Ġrefere": 42437,
    "Ġless": 40601,
    "Ġsn": 49983,
    ".'": 49858,
    "ĠÂł": 47399,
    "Ġsafe": 11257,
    "Ġconver": 47618,
    "ĠOlymp": 45505,
    "ĠGra": 48060,
    "Ġinteg": 47850,
    "Ġpip": 48171,
    "ĠCharl": 25815,
    "ĠHT": 38033,
    "Ġpopular": 11278,
    "look": 11279,
    "Ġexclus": 11286,
    "Ġtort": 22230,
    "Ġ18": 49403,
    "raph": 22007,
    "ric": 40746,
    "Ġadministr": 34535,
    "Ġisol": 27836,
    "ĠMedic": 13516,
    "Ġpromot": 43126,
    "Ġcommand": 43396,
    "ĠRus": 46600,
    "Ġforg": 43231,
    "ĠMiss": 45751,
    "Ġmeaning": 24258,
    "Ġwealth": 49056,
    "str": 43617,
    "ĠHam": 40546,
    "eat": 31092,
    "RE": 40471,
    "Ġbrief": 49756,
    "Ġstim": 39961,
    "Ġ``": 11337,
    "ateg": 47662,
    "Ġpropag": 47678,
    "ĠBet": 33282,
    "Ġsimultane": 29271,
    "aed": 11386,
    "25": 44433,
    "Sh": 44914,
    "ON": 40253,
    "ane": 33292,
    "Ġvolunte": 41179,
    "Ġcompat": 17509,
    "Ġunf": 45740,
    "Ġdisappoint": 18386,
    "Ġtown": 42568,
    "Ġlay": 41710,
    "Ġjump": 14029,
    "inc": 45202,
    "Ġsix": 27658,
    "OU": 32377,
    "Ġcongress": 29290,
    "Go": 48790,
    "Ġflu": 43217,
    "ĠSch": 49616,
    "Ġvert": 31422,
    "amac": 11469,
    "ĠRead": 41714,
    "Ġhelic": 11472,
    "Ġsacr": 13496,
    "é": 49439,
    "Ġtext": 47103,
    "Ġsmart": 44475,
    "ĠJere": 39937,
    "Ġbank": 33116,
    "Ġver": 45250,
    "Ġshel": 49193,
    "Ġexplicit": 11522,
    "ĠMet": 45175,
    "ĠTok": 47110,
    "Ġaccompan": 47904,
    "ĺ": 11550,
    "Ġtut": 48425,
    "Ġcontem": 38993,
    "Ġprepar": 21263,
    "Ġstead": 35435,
    "ĠSyd": 11597,
    "Ġdark": 44006,
    "Ġgod": 11603,
    "Ġalgorith": 15858,
    "Ġoxy": 11608,
    "Ġkil": 36820,
    "ĠKent": 11612,
    "be": 47181,
    "Ġbuff": 44764,
    "AG": 25297,
    "Ġtong": 39158,
    "ĠExpl": 49870,
    "é¾": 11630,
    "Ġoption": 42721,
    "Ġbab": 46456,
    "ĠScott": 11650,
    "ĠHit": 49990,
    "ng": 11655,
    "Ġpow": 32024,
    "ĠJava": 11678,
    "ĠTes": 11683,
    "Ġprivile": 21674,
    "paren": 11689,
    "Ġprosecut": 37987,
    "Ġheart": 44022,
    "uss": 43225,
    "ĠMarket": 36448,
    "Ġlicens": 15410,
    "ĠTrad": 44795,
    "à": 47816,
    "ĠTit": 48952,
    "own": 18148,
    "ĠDun": 44333,
    "ĠSystem": 11743,
    "ĠGirl": 11747,
    "Ġconstruct": 33920,
    "Ġneighb": 23533,
    "Ġoccup": 47487,
    "Ġquant": 36081,
    "Ġearn": 29084,
    "ĠPost": 44741,
    "ãĥ¼": 43098,
    "Ġprompt": 36199,
    "Ġscr": 37372,
    "Ġspeed": 35309,
    "ĠGi": 35834,
    "Ġnow": 26505,
    "fort": 37104,
    "Ġinqu": 44817,
    "Ġamong": 11822,
    "ows": 46968,
    "Ġclim": 44970,
    "Ġremem": 44572,
    "ĠNev": 35585,
    "Ġtermin": 47730,
    "ĠMy": 33221,
    "ï¿½ï¿½": 48330,
    "book": 11851,
    "Ġdim": 38262,
    "Ġdesper": 31010,
    "Ġcapital": 34905,
    "Ġ20": 48354,
    "Ġbom": 25872,
    "Ġexha": 18809,
    "ĠChel": 11892,
    "Ġbutt": 49938,
    "ĠMur": 23120,
    "Ġkick": 40277,
    "Qu": 44704,
    "Ġprevent": 36942,
    "Ġflo": 49160,
    "Ġchampions": 27204,
    "Ġsty": 45297,
    "io": 40842,
    "ah": 49742,
    "Ġoccas": 12177,
    "Sec": 49538,
    "Gener": 45934,
    "ĠMal": 40480,
    "ĠBrook": 44669,
    "Ġprohib": 49469,
    "Ġli": 31611,
    "Ġrevolution": 44092,
    "Ġclick": 28129,
    "ĠLiber": 33971,
    "ĠOrgan": 41591,
    "def": 46503,
    "Ġmother": 32513,
    "ced": 19030,
    "Ġrook": 39522,
    "Ġpeace": 30741,
    "ĠVict": 38773,
    "Ġvacc": 46164,
    "ĠLoad": 42230,
    "ĠRob": 39447,
    "Ġdetect": 43932,
    "Ġadjust": 45839,
    "Er": 12076,
    "Ġmatch": 31778,
    "ĠTre": 34670,
    "xx": 31556,
    "ĠSol": 28507,
    "igen": 12102,
    "Ġsurprising": 12107,
    "ĠOak": 12114,
    "ett": 47162,
    "Ġdeploy": 40599,
    "ĠMic": 27152,
    "ĠCome": 12133,
    "Ġbrut": 29785,
    "@": 41318,
    "Ġpublish": 12152,
    "Ġobser": 22635,
    "Ġresident": 12165,
    "ade": 16260,
    "Ġsoph": 24250,
    "Ġmort": 48753,
    "Ġbath": 48821,
    "Ġcollabor": 49905,
    "Su": 32989,
    "Ġmid": 49005,
    "Ġtremend": 34100,
    "ĠLight": 42895,
    "Ġsimilar": 26534,
    "Ġemphas": 36105,
    "bs": 23890,
    "Ġmer": 44315,
    "oot": 48061,
    "Ġreflect": 34811,
    "Ġanaly": 48911,
    "Ġhousehold": 12248,
    "Ġreform": 42623,
    "Ġfavour": 39234,
    "Ġnight": 45069,
    "elt": 12259,
    "ĠDel": 43116,
    "Ġwire": 33254,
    "EM": 39239,
    "ĠMot": 20588,
    "Ġcourt": 24577,
    "Ġcross": 41675,
    "cos": 12286,
    "bour": 24001,
    "Ġdisag": 37735,
    "ĠSing": 14148,
    "Ġembr": 37617,
    "Ġphotograph": 12311,
    "eral": 33059,
    "Ġfoss": 33811,
    "Ġfire": 46561,
    "enez": 12341,
    "lect": 41754,
    "Ġdelic": 18962,
    "sp": 47928,
    "Ġconstit": 27021,
    "ĠMon": 46721,
    "Re": 47286,
    "mun": 12385,
    "Ġconfirm": 12386,
    "ĠGT": 12391,
    "ĠPent": 12396,
    "Ġeval": 47595,
    "Ġintellig": 12406,
    "Ġkid": 41140,
    "Ġreb": 48844,
    "ĠNether": 12416,
    "ĠStat": 45779,
    "ĠMem": 40902,
    "ĠAir": 39765,
    "ĠOther": 15068,
    "ĠHot": 12441,
    "Ġhonest": 24090,
    "Ġquiet": 43625,
    "Ġ14": 49302,
    "ipp": 40959,
    "oke": 12462,
    "Ġclean": 49847,
    "Ġworth": 27808,
    "Ġfree": 44134,
    "Ġline": 30889,
    "Ġimpact": 40033,
    "ĠPitt": 12512,
    "wcs": 12526,
    "Ġconsecut": 12530,
    "ĠChair": 12532,
    "IM": 12534,
    "Ġinequ": 45205,
    "claim": 16856,
    "ĠJac": 44471,
    "Ġ\"": 45179,
    "Us": 37797,
    "Ġdistrict": 12560,
    "ĠMil": 48303,
    "ethe": 36661,
    "Ġflex": 13433,
    "Ġorient": 12597,
    "Ġmoment": 40702,
    "Ġmurd": 38058,
    "ĠMont": 49753,
    "Ġadequ": 22413,
    "ĠSher": 47558,
    "Ġdiscipl": 30399,
    "Ġintim": 32444,
    "hatt": 12649,
    "Ġwra": 29653,
    "Ġchemical": 12655,
    "Ġfro": 37530,
    "ĠAgain": 12659,
    "Ġuncom": 18930,
    "ĠGall": 38325,
    "Ø": 45437,
    "Ġdepart": 49795,
    "Ġjurisd": 25026,
    "lyn": 12680,
    "Ġencount": 12701,
    "ĠJim": 12708,
    "ĠCry": 12714,
    "olit": 21449,
    "Ġoblig": 44354,
    "Ġpursu": 45713,
    "Add": 45990,
    "ari": 38755,
    "Ġdiscl": 39661,
    "Ġunpre": 44847,
    "point": 12778,
    "tt": 35416,
    "Ġfix": 48530,
    "ĠEr": 43970,
    "orne": 12805,
    "Ġlux": 35730,
    "ĠTra": 43855,
    "umin": 36945,
    "Ġreven": 15572,
    "Å": 46226,
    "Ġfurn": 41972,
    "Ġcast": 48948,
    "Ġdiplom": 28023,
    "ĠPlay": 44647,
    "Ġbond": 43218,
    "Ġcoach": 12846,
    "ĠPatri": 48410,
    "Ġproceed": 18559,
    "Ġcomprom": 38598,
    "Ġunnecess": 38092,
    "Ġdoct": 26610,
    "friend": 35899,
    "Ġbeat": 12870,
    "vis": 41528,
    "raw": 49008,
    "ĠiP": 48486,
    "Ġju": 45018,
    "Ġdele": 34562,
    "ĠAct": 46889,
    "VID": 42682,
    "Ġgrab": 23001,
    "Ġrot": 44628,
    "Ġexcess": 40182,
    "Ġinvent": 47347,
    "ault": 12930,
    "Ġbill": 46441,
    "Ġvent": 44461,
    "Inst": 49678,
    "Ġearth": 39637,
    "Ġgif": 22272,
    "boy": 12947,
    "Ġinev": 16602,
    "Ġcompe": 19977,
    "Ġrhet": 38250,
    "Ġbound": 49693,
    "add": 47823,
    "eter": 39367,
    "Ġlapt": 26380,
    "Ġking": 41646,
    "oph": 49001,
    "Mich": 40355,
    "osit": 34806,
    "ĠRec": 48852,
    "ĠCommission": 47798,
    "ĠEnvironment": 13017,
    "Ġlegend": 13018,
    "Ġtun": 38628,
    "Ġprospect": 17275,
    "Ġachieve": 16715,
    "May": 37141,
    "Con": 47326,
    "ĠPhilipp": 39138,
    "Ġalt": 37422,
    "oo": 33905,
    "ĠWay": 13074,
    "Ġcir": 47894,
    "appropri": 44920,
    "ĠDak": 13081,
    "Ġmotiv": 48811,
    "ĠLouis": 21270,
    "Ġ10": 49361,
    "Ġsustain": 26554,
    "10": 40148,
    "Ġcomplex": 47771,
    "Ġstun": 49517,
    "Ġmo": 47389,
    "Spe": 32164,
    "ades": 13155,
    "[": 29854,
    "Ġtempor": 21709,
    "ĠMeg": 13166,
    "\\\\": 13171,
    "Ġjun": 13175,
    "ĠAdv": 42453,
    "force": 13187,
    "Ġcabin": 42809,
    "ĠClass": 43425,
    "Ġ16": 27574,
    "Ġpoor": 13200,
    "Ġpra": 39966,
    "ĠLib": 44129,
    "Ġtrust": 36627,
    "Ġbomb": 35030,
    "ĠSci": 13218,
    "Ġmunicip": 27009,
    "Ġuncertain": 36298,
    "Ġbattle": 13225,
    "ĠAud": 48243,
    "ats": 39808,
    "Ġwood": 49354,
    "Man": 47777,
    "Ġbureau": 13260,
    "Ġsupposed": 13264,
    "Ġgrav": 43524,
    "Ġanalys": 34508,
    "Ġpath": 42051,
    "ĠStr": 47306,
    "Ġtend": 41950,
    "bor": 49615,
    "itial": 13307,
    "Ġharm": 48984,
    "Ġexpert": 13317,
    "Ġtraged": 42291,
    "ĠProp": 33105,
    "Ġmut": 48610,
    "ĠCirc": 46403,
    "Ġthro": 48757,
    "ĠHis": 13345,
    "ĠMarsh": 37644,
    "erg": 19538,
    "ĠCre": 41427,
    "ĠPark": 38358,
    "Ret": 13360,
    "ĠChristian": 13369,
    "Ġdeliver": 30912,
    "ĠRog": 15117,
    "hand": 38533,
    "ĠOx": 13388,
    "Ġsurviv": 23191,
    "OM": 13394,
    "fol": 44987,
    "ĠBook": 30749,
    "umbn": 20311,
    "Ġdiagn": 40312,
    "ĠStew": 13416,
    "Ġnation": 18590,
    "Ġmand": 33313,
    "Ġeditor": 13429,
    "ung": 13432,
    "Ear": 22585,
    "cy": 38546,
    "ãĢ": 40294,
    "Ġveget": 28204,
    "$": 46858,
    "osh": 25189,
    "ĠHawai": 29572,
    "Per": 36380,
    "uff": 18084,
    "ĠCamp": 24750,
    "aug": 13471,
    "me": 49213,
    "Act": 26162,
    "ĠFil": 29943,
    "ĠOrig": 23824,
    "Ġspir": 46620,
    "Ġhat": 49098,
    "Ġsophistic": 44554,
    "Ġbes": 37873,
    "Ġthorough": 13515,
    "arent": 13518,
    "pri": 49081,
    "ĠNe": 47731,
    "å": 48780,
    "ĠEag": 18201,
    "ĠLic": 49707,
    "ĠMississ": 13542,
    "Eng": 38908,
    "ĠReg": 46834,
    "dis": 47475,
    "ĠLa": 45664,
    "Ġelder": 13575,
    "ĠCra": 45746,
    "ĠKir": 48848,
    "medi": 38108,
    "Ù": 48508,
    "ĠStan": 13912,
    "Ġmeasure": 15303,
    "Ġplug": 36753,
    "ĠChall": 44240,
    "ĠRel": 46628,
    "Ġapproach": 13630,
    "Ġarrang": 14497,
    "Ġperm": 29001,
    "Ġdestro": 27583,
    "Un": 46745,
    "Ġfasc": 48339,
    "Ġstatist": 19686,
    "We": 48505,
    "ĠHamp": 13655,
    "ĠLaw": 42438,
    "EX": 49609,
    "ĠEv": 32100,
    "Ġlaunch": 13670,
    "cul": 49007,
    "ĠElect": 39969,
    "¥": 34814,
    "itzer": 13692,
    "Ġenter": 23686,
    "ĠÃ": 49108,
    "Ġpros": 13728,
    "Ġpled": 43603,
    "Ġstro": 29228,
    ",'": 15823,
    "ĠColl": 49998,
    "Ġlabor": 35395,
    "ĠFrank": 48280,
    "Ġsevent": 38486,
    "Ġsynd": 13772,
    "++": 46998,
    "Is": 41196,
    "Ġbed": 47601,
    "ĠEngine": 26915,
    "US": 32580,
    "OS": 48496,
    "ĠOtt": 33903,
    "ĠEgypt": 32403,
    "ank": 39301,
    "Ġhypot": 25090,
    "Ġlove": 13826,
    "Ġstrict": 13829,
    "Ġtaxp": 14521,
    "Ġroll": 37925,
    "Ġdevast": 34340,
    "Sp": 49600,
    "Ġinfect": 24991,
    "ID": 47699,
    "ĠTai": 13864,
    "Ġsucceed": 33940,
    "Ġicon": 13878,
    "Ġscreen": 41122,
    "Ġtable": 44797,
    "ĠInf": 46376,
    "ĠNin": 13897,
    "ĠQual": 32648,
    "ĠCub": 21307,
    "ĠChron": 17485,
    "Ġfast": 38032,
    "OW": 35793,
    "ergus": 13913,
    "Ġlin": 41567,
    "Ġpure": 13922,
    "ĠPot": 43621,
    "Ġdu": 18290,
    "iction": 13933,
    "ĠTo": 46576,
    "16": 35895,
    "ĠFollow": 13952,
    "ĠFriend": 39738,
    "Ġcitizens": 13963,
    ";;": 13968,
    "Ġaccus": 25729,
    "bit": 35140,
    "Post": 21241,
    "Ġped": 46640,
    "Ġrub": 43251,
    "Ġagric": 14255,
    "Ġfirm": 18524,
    "ĠMcC": 48054,
    "Ġ25": 37576,
    "Form": 25972,
    "Ġfrust": 40192,
    "ĠTer": 38604,
    "Ġneighborhood": 14032,
    "Follow": 14036,
    "Ġrecip": 47880,
    "de": 38805,
    "mar": 45139,
    "cel": 14053,
    "Ġbub": 24782,
    "Am": 43286,
    "Ġfemin": 23309,
    "Ġmeant": 14069,
    "PD": 49061,
    "Ġspread": 29862,
    "Ġrom": 19406,
    "Ġstab": 29163,
    "Ġsymbol": 36658,
    "Ġven": 30063,
    "ĠLear": 38259,
    "Ġlaugh": 47368,
    "Ġthread": 40690,
    "gl": 37502,
    "ĠBas": 45629,
    "Ġlack": 49891,
    "Ġceleb": 21050,
    "Ġrh": 39750,
    "Ġvit": 48695,
    "Ġboot": 48441,
    "ĠRon": 40637,
    "Ġtransform": 47130,
    "ĠKick": 14182,
    "Ġrent": 39202,
    "Ġbelong": 30730,
    "Ġcro": 48743,
    "Ġbuy": 17617,
    "ĠCam": 43026,
    "win": 14208,
    "Ġnodd": 47328,
    "ĠForm": 46434,
    "########": 14213,
    "Ġanticip": 40552,
    "ĠConnect": 26668,
    "Ġ!": 14257,
    "Ġremind": 40432,
    "Ġscrut": 30186,
    "Ġexch": 38912,
    "ĠMit": 14271,
    "Ġinhab": 30416,
    "group": 14276,
    "ĠBen": 47636,
    "fr": 31689,
    "Ġhighlight": 21037,
    "ĠArk": 29231,
    "mind": 14288,
    "Ġfel": 46594,
    "Ġembed": 14298,
    "Ġsoon": 14301,
    "Ġexplo": 29185,
    "Ġpresum": 39460,
    "asket": 14320,
    "load": 45775,
    "Ġund": 44916,
    "Ġdeliber": 45608,
    "ĠWork": 35157,
    "Ġvac": 48440,
    "Ġwarn": 14346,
    "Ġcomment": 46659,
    "ĠPolit": 26841,
    "Ġthr": 31996,
    "Ġtraff": 40166,
    "Ġmetab": 19482,
    "Ġ[": 48827,
    "Se": 43760,
    "ĠStre": 27007,
    "Ġfulf": 32108,
    "ĠUr": 14410,
    "ĠOver": 46609,
    "ĠOper": 35691,
    "Ġele": 21961,
    "Ġexpress": 27250,
    "ĠVol": 48125,
    "Ġshock": 49737,
    "Ġcollaps": 35497,
    "ĠMad": 46439,
    "Ġaccident": 22966,
    "Ġhung": 14465,
    "Ġmagn": 43865,
    "Ġfriends": 34341,
    "atern": 16839,
    "Ġscript": 39527,
    "aret": 48083,
    "asc": 42433,
    "ft": 35339,
    "Ġscream": 26302,
    "Ġamb": 41447,
    "cent": 37795,
    "Ġpresc": 39718,
    "Ġname": 14556,
    "ĠVill": 14557,
    "ential": 14562,
    "ĠMel": 49617,
    "ÃĥÃĤÃĥÃĤÃĥÃĤÃĥÃĤ": 14572,
    "Ġrender": 14582,
    "Ġunl": 39156,
    "ĠVlad": 14585,
    "dr": 48752,
    "ĠKurd": 29184,
    "Ġdistur": 23814,
    "Ġattend": 46082,
    "oth": 42121,
    "gu": 48062,
    "Ġshif": 15597,
    "ue": 45494,
    "ham": 17725,
    "ĠTy": 27967,
    "Ġsup": 28359,
    "Ġvessel": 14636,
    "ĠAv": 42883,
    "Ġswim": 14644,
    "ĠBuff": 46762,
    "Art": 42765,
    "Ġsid": 36674,
    "Ġcat": 48531,
    "ĠHigh": 46156,
    "Ġuncons": 14662,
    "ĠSat": 47913,
    "ĠSus": 41333,
    "Ġrum": 30172,
    "Ġavoid": 30685,
    "by": 35949,
    "Ġment": 44436,
    "ĠUb": 34304,
    "âĢĶâĢĶâĢĶâĢĶ": 14695,
    "ĠSuper": 45418,
    "ĠMP": 48397,
    "Ġintent": 14698,
    "UT": 48249,
    "Ġarbit": 40392,
    "orig": 46848,
    "down": 30116,
    "Ġvolt": 14749,
    "Int": 46286,
    "Ġcondem": 49503,
    "ĠSnow": 14760,
    "Ġmac": 39762,
    "ios": 48193,
    "Ġsevere": 14797,
    "ĠCop": 30849,
    "Ġgam": 33981,
    "ĠHy": 47707,
    "Ġmulti": 16658,
    "Ġroy": 36251,
    "ĠCy": 45859,
    "Ġblack": 45684,
    "met": 41680,
    "rypt": 14854,
    "Ġrend": 40315,
    "Ġcloud": 39771,
    "~~~~": 14861,
    "ĠVe": 45849,
    "ĠFro": 23418,
    "Ġsuspic": 30253,
    "incinn": 14875,
    "Ġcool": 38634,
    "ĠCoal": 14880,
    "Ġcoc": 35590,
    "ocaly": 28084,
    "ogen": 27642,
    "Ġcrypt": 47519,
    "Ð": 43411,
    "Pro": 44428,
    "OL": 33207,
    "Ġprev": 34174,
    "Ġcolumn": 22054,
    "14": 23501,
    "ĠKn": 32032,
    "ĠTrans": 48910,
    "uls": 21965,
    "Ġwithdraw": 43684,
    "Ġblood": 45750,
    "Ġprelim": 14968,
    "ĠOcc": 40404,
    "Ġglass": 14977,
    "connect": 38404,
    "ĠMult": 20146,
    "ĠNor": 43331,
    "agon": 36509,
    "Â¯Â¯Â¯Â¯": 14988,
    "ĠNC": 14989,
    "ĠJo": 26385,
    "ĠLuc": 47903,
    "18": 38933,
    "Ġdeleg": 49456,
    "Cop": 15014,
    "serv": 45597,
    "Ġcolleg": 44698,
    "Ġrow": 15019,
    "Ġconfident": 37636,
    "Ġteen": 17111,
    "ather": 25290,
    "ĠPu": 15040,
    "ĠSimilar": 15043,
    "ĠLim": 44688,
    "OO": 23548,
    "ĠWik": 44622,
    "Ag": 15061,
    "Ġelev": 36575,
    "ĠShe": 49934,
    "ĠMalays": 29776,
    "uten": 18773,
    "Ġnon": 43759,
    "Ġpassion": 42881,
    "ĠPriv": 16522,
    "ç": 49171,
    "head": 49890,
    "Whe": 45052,
    "ze": 43472,
    "11": 41805,
    "ENT": 45334,
    "amb": 31587,
    "ĠJeff": 19372,
    "Ġpref": 46881,
    "ser": 46656,
    "Ġhelicop": 23635,
    "ĠHall": 42289,
    "ĠBud": 40704,
    "ocr": 39658,
    "ĠTurn": 35888,
    "Ġgar": 35842,
    "ĠOl": 39764,
    "Ġdiet": 15174,
    "Ġswitch": 15175,
    "Rep": 39916,
    "Ġvel": 47495,
    "Ġlast": 20119,
    "found": 42271,
    "Ġsear": 16244,
    "Ġrandom": 23670,
    "ĠTal": 47340,
    "\":\"": 46927,
    "ãģ®": 34378,
    "ĠMove": 15222,
    "ii": 15224,
    "ĠST": 49093,
    "Ġlabel": 27138,
    "`": 47416,
    "rain": 23185,
    "ĠCrim": 18467,
    "Ġadm": 44308,
    "ful": 15283,
    "ĠSub": 47164,
    "Ġaccommod": 49134,
    "Ġham": 42374,
    "ĠAlbert": 15300,
    "Ġfacilit": 42444,
    "Ġsynt": 24728,
    "Te": 49515,
    "ĠVirt": 39407,
    "Ke": 47867,
    "Ġwild": 48043,
    "rep": 49677,
    "Ġgall": 38207,
    "ĠVis": 44280,
    "ĠLook": 29148,
    "Ġmart": 27754,
    "Ġtoler": 33180,
    "Ġsoul": 15370,
    "ĠPerson": 41368,
    "ĠNob": 20578,
    "Ġincent": 39423,
    "Ġovers": 40676,
    "Ġtrib": 29850,
    "ĠBelg": 21147,
    "Produ": 34772,
    "Ġspecial": 42880,
    "Ġdownload": 41241,
    "ĠReincarn": 15430,
    "ĠBloom": 15434,
    "ĠFour": 15437,
    "ĠED": 48228,
    "Ġgluc": 15446,
    "eg": 39584,
    "Ġrenew": 36096,
    "Ġdistingu": 45227,
    "ĠPack": 17577,
    "Ġedit": 15464,
    "ĠPet": 47122,
    "Ind": 48898,
    "Ġformer": 15479,
    "eal": 26664,
    "ĠCongress": 30445,
    "oles": 23151,
    "Ġannoy": 38395,
    "Ġcrowd": 33596,
    "Look": 40847,
    "Ġfort": 46072,
    "dri": 36447,
    "ĠWal": 43032,
    "ĠEb": 15570,
    "Ġproblem": 15578,
    "Ġhaz": 27236,
    "Ġstraight": 15581,
    "Cont": 45590,
    "Ġloyal": 15588,
    "Ġmis": 43491,
    "Ġ+": 49699,
    "VER": 15603,
    "ĠRE": 49713,
    "âĢ¦âĢ¦": 15609,
    "Ġexhib": 47875,
    "ĠMu": 15615,
    "Ġmob": 31953,
    "Ġvary": 15619,
    "|": 15631,
    "Ġsocial": 42750,
    "ĠBill": 35974,
    "Ġspons": 42314,
    "Micro": 15650,
    "Ġadj": 45800,
    "foot": 42872,
    "Ġfru": 41420,
    "Ġtour": 25328,
    "ĠNever": 15678,
    "Ġdraft": 29992,
    "Ġutter": 15695,
    "Ġelabor": 45679,
    "any": 49204,
    "oub": 47420,
    "support": 15744,
    "writ": 34167,
    "ĠHur": 39164,
    "Ġwhat": 44783,
    "Ġsell": 23276,
    "Ġhorizont": 36519,
    "ĠSk": 42644,
    "ĠSn": 30753,
    "Ġtradem": 27091,
    "Ġmake": 15774,
    "Ġassemb": 40270,
    "ĠHallow": 15777,
    "ĠVer": 49718,
    "ĠFR": 15779,
    "accept": 15782,
    "ĠHig": 41609,
    "Ġcoordin": 22460,
    "Ġcounterpart": 15799,
    "ĠBrother": 17732,
    "Ġaccording": 15807,
    "ĠGerm": 15809,
    "âĶĢâĶĢ": 15813,
    "ĠHoll": 15815,
    "Ġtradition": 15828,
    "Ġrevel": 18856,
    "work": 32676,
    "ĠLyn": 24613,
    "Ġcorrel": 42312,
    "24": 28617,
    "App": 48178,
    "Euro": 15857,
    "ĠRod": 41593,
    "ĠRaid": 15865,
    "Ġnovel": 37731,
    "Not": 45278,
    "Ġtoile": 32456,
    "////": 15895,
    "Ġgal": 44025,
    "Ġretail": 21283,
    "Ġvolunt": 22040,
    "Serv": 30752,
    "ĠEvent": 15923,
    "ĠBrad": 27944,
    "Every": 27917,
    "izz": 44206,
    "imens": 15943,
    "Ġtheoret": 26532,
    "ĠInvest": 47724,
    "Ġorder": 38909,
    "Russ": 16092,
    "ude": 15974,
    "Ġsubsid": 37062,
    "Ġroutine": 15976,
    "ĠDev": 47316,
    "Ġdisg": 36688,
    "Ġassign": 46719,
    "struct": 15987,
    "Ġdign": 15992,
    "Ġcommission": 32765,
    "With": 35737,
    "Ġcart": 41144,
    "ĠIndones": 28004,
    "fe": 39435,
    "Ex": 46918,
    "heim": 16033,
    "Ġpron": 41439,
    "Ġearthqu": 29526,
    "atter": 16220,
    "ĠDark": 16051,
    "Ġgreen": 16070,
    "ĠAnn": 43215,
    "ĠON": 21969,
    "ĠPhys": 45951,
    "ĠJenn": 45122,
    "Over": 37706,
    "iot": 18041,
    "oster": 16117,
    "oca": 16122,
    "Ġwrest": 46570,
    "ĠExper": 35840,
    "Ġtransf": 16140,
    "ias": 48200,
    "Ġappeal": 22025,
    "Ġnav": 20181,
    "ĠReturn": 42627,
    "Ġphotograp": 26219,
    "ĠVik": 30841,
    "oubted": 16168,
    "Ġauthent": 44274,
    "Ġorganis": 42758,
    "ĠBrus": 16190,
    "Cre": 41717,
    "Ġaver": 25439,
    "Ġlength": 20173,
    "Ġintention": 21136,
    ">>": 34261,
    "rane": 16219,
    "ĠWood": 40527,
    "Ġax": 40811,
    "eb": 36797,
    "Ġcatch": 45869,
    "Ġimprison": 20870,
    "Ġrecru": 22841,
    "ĠArgent": 36144,
    "Ġapolog": 47146,
    "ĠGriff": 30214,
    "ss": 45569,
    "ĠCow": 48451,
    "but": 42804,
    "olph": 26906,
    "udd": 43753,
    "Ġincorpor": 43364,
    "Ġsteal": 16313,
    "Ġsher": 16315,
    "Ġadapt": 34880,
    "Ġtrave": 48875,
    "Ġnice": 16321,
    "NOT": 16325,
    "ĠBron": 32231,
    "Ġ]": 41577,
    "ich": 41685,
    "ĠYOU": 16337,
    "leg": 36806,
    "Ġorg": 23515,
    "Ġnut": 44612,
    "Ġsexual": 16386,
    "Ġsurf": 35999,
    "agh": 16395,
    "ĠVenezuel": 34242,
    "alth": 16415,
    "iox": 26039,
    "Ġevolution": 16418,
    "Ġconfront": 42395,
    "Rem": 45720,
    "Ġ17": 35410,
    "ĠBarb": 46574,
    "UC": 16441,
    "ĠAirl": 16457,
    "UL": 36977,
    "Ġvig": 31354,
    "ale": 31845,
    "ĠSeah": 16477,
    "run": 48126,
    "ĠMichel": 16483,
    "olester": 16488,
    "ĠIntrodu": 22140,
    "Ġspark": 41270,
    "ĠLaur": 40556,
    "ĠBry": 39305,
    "ĠNex": 16501,
    "ĠCat": 47983,
    "Ġcance": 19739,
    "LE": 28627,
    "olute": 16525,
    "Apr": 16529,
    "path": 38574,
    "Ġalbum": 16533,
    "Ġpist": 41488,
    "Ġ\\": 34118,
    "hel": 35311,
    "cons": 49572,
    "ĠFire": 40119,
    "effect": 34180,
    "Ġspace": 16552,
    "iber": 16558,
    "Ġpreval": 21599,
    "OD": 32821,
    "=-": 16567,
    "Ġwilling": 16571,
    "CL": 38894,
    "Ġble": 48769,
    "Ġque": 43104,
    "offic": 16586,
    "ĠLeban": 27821,
    "Ġvan": 48916,
    "deg": 16608,
    "Ġru": 39587,
    "atin": 16626,
    "ĠCurrent": 16633,
    "Ġneur": 42909,
    "ibl": 19134,
    "Ġoptim": 45525,
    "Ġgro": 41992,
    "ĠRock": 35266,
    "Ġjew": 42446,
    "Ġcous": 28451,
    "13": 21787,
    "ĠHispan": 30459,
    "Ġinject": 41495,
    "Ġinher": 19297,
    "rav": 43968,
    "ĠDE": 42278,
    "Ġdescript": 42832,
    "ĠConf": 46931,
    "ĠGM": 45880,
    "Ġpast": 46498,
    "Ġignor": 19854,
    "Ġbicy": 47839,
    "Ġconsult": 47572,
    "99": 44566,
    "ĠBrazil": 16781,
    "Ġentreprene": 19245,
    "cer": 41726,
    "clip": 16788,
    "Put": 46144,
    "Ġmisc": 35721,
    "Ġeat": 16810,
    "Mus": 22393,
    "Ġfaith": 42773,
    "Ġelectron": 35172,
    "econom": 16824,
    "Ġten": 46288,
    "Ġsince": 16827,
    "Ġmix": 33683,
    "Ġcolon": 46714,
    "greg": 16842,
    "Ġconvinc": 16846,
    "orient": 16852,
    "Ġhack": 23130,
    "aren": 16862,
    "Will": 16866,
    "ĠRepresent": 19665,
    "par": 37011,
    "Ġic": 16894,
    "Ġfather": 16895,
    "ĠBob": 16900,
    "ĠWall": 40444,
    "ĠCommon": 16910,
    "Ġgenuine": 16915,
    "Ed": 45627,
    "Ġhyd": 24784,
    "****************": 16919,
    "aus": 16923,
    "print": 49440,
    "Ġvend": 18116,
    "child": 16942,
    "Ġtrick": 42353,
    "charg": 34693,
    "Ġbehavior": 16956,
    "success": 37096,
    "ĠExt": 49496,
    "indu": 16968,
    "ignt": 16969,
    "Comm": 49991,
    "Ġbankrupt": 16980,
    "rem": 47705,
    "Ġmusic": 21368,
    "ĠPur": 31784,
    "Ġstick": 28313,
    "17": 26937,
    "Ġcontinu": 44167,
    "Ġshout": 19387,
    "ling": 33295,
    "Ġlad": 17747,
    "Ġinput": 17056,
    "æ": 46508,
    "Ġboss": 17062,
    "Ġ11": 36311,
    "ĠIce": 17078,
    "Ġsufficient": 17083,
    "ĠArch": 44300,
    "ĠDise": 39733,
    "inst": 38843,
    "ĠJess": 43170,
    "Ġlock": 48194,
    "è": 48703,
    "Ġflav": 46691,
    "ĠBase": 31528,
    "ĠGab": 17116,
    "Ġaffili": 28861,
    "ĠSac": 41781,
    "ĠBut": 39425,
    "Î": 42745,
    "Load": 18776,
    "ĠCreat": 34284,
    "Ġrecept": 40807,
    "ĠCarl": 44093,
    "Met": 48271,
    "Ġmal": 49035,
    "ĠEffect": 29200,
    "ĠPir": 19914,
    "ĠIndust": 19916,
    "Fr": 42719,
    "Ġendors": 38124,
    "ĠHom": 47451,
    "Ġflood": 27028,
    "ĠAny": 21581,
    "ĠBenn": 17213,
    "En": 47068,
    "sm": 49565,
    "ĠPresident": 17216,
    "Ġcoast": 43160,
    "19": 47849,
    "ING": 20499,
    "ĠCho": 41943,
    "Ġdub": 25037,
    "wind": 28202,
    "Ġ13": 35803,
    "Ġlobb": 40580,
    "Ġincom": 17248,
    "ĠAp": 24588,
    "Ġsyn": 48575,
    "Ġmanip": 47604,
    "Ġparliament": 17266,
    "ĠSC": 17272,
    "ĠBoy": 37364,
    "AB": 17279,
    "aid": 44099,
    "ĠIns": 39662,
    "Sept": 17288,
    "Ġrisk": 41924,
    "Ġabsor": 42654,
    "ĠCollect": 49749,
    "Ġovert": 47900,
    "ĠTrib": 40725,
    "ould": 17346,
    "Ġpublisher": 17349,
    "Ġflow": 35201,
    "AP": 45466,
    "ĠFal": 20771,
    "Ġinhabit": 17367,
    "Ġterr": 23499,
    "Ġutil": 34292,
    "Ġban": 47345,
    "Ġcig": 32949,
    "ĠHol": 48950,
    "ĠPhill": 36297,
    "Mod": 31184,
    "Ġfundament": 32844,
    "Ġobst": 27863,
    "Ġplace": 45821,
    "asp": 49157,
    "Ġdestruct": 17401,
    "ĠTig": 17407,
    "ean": 17408,
    "ocument": 17409,
    "ĠBrown": 46505,
    "Ġremain": 17420,
    "ĠImp": 38536,
    "Ġred": 48331,
    "grad": 49352,
    "ĠCrit": 33130,
    "Ġrevers": 48032,
    "Ġtouchdown": 17437,
    "ai": 42393,
    "Ġgrand": 49635,
    "Ġsport": 17447,
    "ount": 18380,
    "Ġtight": 37002,
    "ĠNov": 17456,
    "aut": 41044,
    "ush": 45958,
    "there": 17478,
    "ming": 39518,
    "ĠPict": 19796,
    "set": 40151,
    "Ġmole": 27501,
    "ĠFair": 33259,
    "mine": 17506,
    "Ġhorm": 21056,
    "Ġentert": 34733,
    "Ġminim": 49236,
    "ĠPant": 30109,
    "Ġaer": 43039,
    "Ġsolid": 49294,
    "Dr": 45767,
    "ÂłÂłÂłÂł": 17556,
    "Ġfrank": 17558,
    "Ġenact": 28292,
    "not": 41883,
    "Ġendorse": 40359,
    "ĠJam": 46265,
    "15": 33443,
    "ĠIN": 47528,
    "Ġles": 35003,
    "Ġamend": 17580,
    "Ġspot": 43598,
    "sw": 46482,
    "Ġconj": 17601,
    "Ġeru": 35921,
    "Ġdiss": 49658,
    "ĠSome": 42886,
    "ĠBoe": 26018,
    "ĠDest": 45402,
    "ĠBang": 45961,
    "acher": 17637,
    "ĠDragon": 17645,
    "Ġdrag": 24791,
    "Ġbarrel": 17652,
    "Aug": 17653,
    "ĠMir": 41372,
    "Sm": 25355,
    "AA": 38285,
    "list": 17680,
    "Can": 27948,
    "cre": 38538,
    "ĠStart": 40217,
    "urt": 24940,
    "ĠPC": 44899,
    "Ġskept": 37717,
    "Ġemotion": 17736,
    "ason": 38695,
    "VERT": 17745,
    "ĠBul": 47645,
    "ĠWild": 45756,
    "Ġfu": 17762,
    "ĠCarib": 17765,
    "Ġanch": 43105,
    "Ġcraft": 27974,
    "ĠCitiz": 22052,
    "Ġirre": 43380,
    "ox": 43831,
    "import": 17794,
    "dep": 43768,
    "ook": 46033,
    "Ġpal": 43845,
    "Ġfundra": 27384,
    "Ġmathemat": 19218,
    "ĠCard": 34655,
    "ĠBull": 34714,
    "Ġpit": 45461,
    "ernand": 17837,
    "ĠAth": 17838,
    "ux": 17840,
    "rig": 35376,
    "ĠLet": 24246,
    "Hist": 17867,
    "Pr": 46976,
    "ĠCost": 46634,
    "Ġinterf": 46159,
    "Ġrecre": 31794,
    "amer": 41384,
    "Ġpreced": 37922,
    "Ġnons": 49314,
    "ĠEmer": 48042,
    ".\"": 41169,
    "ĠRun": 44488,
    "ĠWeek": 30282,
    "ĠGreat": 33320,
    "mod": 46934,
    "Ġconce": 40069,
    "fer": 17931,
    "Ġdepos": 26908,
    "roph": 17936,
    "Ġepid": 24319,
    "ĠImm": 32633,
    "ĠMyster": 40726,
    "Ġkilomet": 23735,
    "Ġwarrant": 49919,
    "ĠDub": 24265,
    "Ġtast": 17966,
    "Ġsour": 46760,
    "Ġattach": 31906,
    "ĠIss": 47155,
    "ĠQuest": 20141,
    "Jo": 24108,
    "Ġunlaw": 48588,
    "^": 36541,
    "atic": 17990,
    "fund": 24777,
    "ĠLi": 43067,
    "ĠResp": 33301,
    "ĠMer": 46093,
    "Ġdispos": 32190,
    "Ġgau": 18011,
    "Ġindu": 44306,
    "arth": 18015,
    "worth": 48501,
    "Ġclar": 31066,
    "Ġautonom": 21596,
    "ĠWell": 30342,
    "Ġefficient": 18051,
    "Ġglob": 18054,
    "ĠPre": 43025,
    "ĠTest": 23728,
    "ĠJul": 48018,
    "Ġshut": 44599,
    "Ġincons": 25849,
    "Ġsubscrib": 18157,
    "Ġbench": 31492,
    "izoph": 18082,
    "Ġgest": 46855,
    "ine": 43821,
    "alk": 20694,
    "ĠIniti": 18107,
    "Ġoffer": 18114,
    "Ġcontrad": 44598,
    "Ġredd": 18119,
    "So": 18125,
    "Ġporn": 47387,
    "Ġtu": 35558,
    "Ġreprodu": 31504,
    "ĠNo": 40780,
    "Ġrelax": 33950,
    "Ġtel": 18145,
    "Ġther": 21714,
    "Ġreluct": 35207,
    "ATION": 29657,
    "Ġpharm": 49406,
    "ĠSon": 45972,
    "ĠPsych": 46149,
    "Ń": 48698,
    "ĠHell": 40997,
    "Ġblank": 34539,
    "ĠHor": 47336,
    "Ġgui": 29956,
    "Ġunve": 43529,
    "Ġpredec": 27422,
    "ĠPear": 41647,
    "Ġfart": 18230,
    "Ġmas": 41614,
    "Ġcasual": 38813,
    "Ġassault": 31285,
    "ĠDra": 48320,
    "Oct": 18262,
    "Ġresign": 18270,
    "ĠML": 47889,
    "Ġinfer": 40985,
    "Ġbund": 36089,
    "ograp": 39365,
    "ĠSoul": 18286,
    "Ġillust": 47632,
    "Ġdress": 27054,
    "Ġscar": 36698,
    "Ġspr": 45544,
    "ĠGarc": 18300,
    "ĠOF": 18307,
    "ĠFe": 45456,
    "Ġmos": 31985,
    "Ġsovere": 18646,
    "ĠRo": 41788,
    "ĠSun": 44768,
    "ĠAle": 38030,
    "Ġsimpl": 34755,
    "ST": 46423,
    "Ġshot": 18352,
    "Ġobsc": 48071,
    "Ġfresh": 44953,
    "20": 42079,
    "ĠLabor": 46524,
    "Ġscholars": 31800,
    "ĠVin": 45694,
    "ĠCris": 18405,
    "Ġrhyth": 39549,
    "Ġancest": 34588,
    "ĠFred": 45182,
    "ĠProduct": 25060,
    "cast": 40669,
    "VERTIS": 18424,
    "Ġmight": 18425,
    "Ġanonym": 35118,
    "Ġmidfield": 18452,
    "Ġdispro": 18462,
    "ĠChief": 18478,
    "urch": 18482,
    "Or": 48370,
    "ilit": 43645,
    "ĠFA": 18494,
    "ek": 39293,
    "Ġmotor": 39149,
    "Ġox": 30533,
    "ĠBon": 38948,
    "Ġdistinct": 30656,
    "bu": 36206,
    "Ġtatt": 29336,
    "Ġfinan": 18531,
    "const": 18534,
    "aken": 18545,
    "å£": 18548,
    "ĠPan": 46039,
    "to": 44324,
    "Ġbillion": 34485,
    "ey": 48163,
    "Ã³": 18585,
    "Ġinsert": 41965,
    "Ġgorge": 18602,
    "udden": 18610,
    "Ġlit": 49367,
    "26": 29802,
    "Ġassass": 48072,
    "ĠBir": 47376,
    "orth": 42284,
    "ĠTib": 18655,
    "Ġhier": 28143,
    "Ġworry": 18661,
    "ĠÎ": 37200,
    "Ġhear": 18666,
    "ourge": 18669,
    "Sim": 35341,
    "Ġstrength": 18674,
    "As": 49415,
    "Ġcrew": 18681,
    "Ġshar": 41160,
    "ĠEs": 48260,
    "ĠVeter": 48673,
    "other": 49468,
    "Ġlineback": 42826,
    "Ġdun": 49854,
    "ĠGen": 49150,
    "Ġembarrass": 24400,
    "year": 18747,
    "ĠMill": 39575,
    "iter": 48472,
    "face": 18769,
    "Ġnever": 18777,
    "ange": 18786,
    "é¾į": 18794,
    "AD": 46894,
    "ĠSl": 49733,
    "66": 46904,
    "Ġbackground": 18808,
    "ĠIsa": 29501,
    "IF": 32042,
    "Ġinterrupt": 47982,
    "ãĥī": 18818,
    "ĠDrag": 18820,
    "Ġfert": 30937,
    "Ġunw": 49029,
    "bro": 37088,
    "ĠFight": 18843,
    "ĠPortug": 21558,
    "Ġflee": 18850,
    "ident": 45791,
    "Ste": 39552,
    "Ġalign": 18859,
    "Ġblog": 38055,
    "Ġnetwork": 18885,
    "Ġlect": 39973,
    "Ġupload": 33539,
    "ĠNaz": 18892,
    "Ġportray": 42203,
    "ĠBudd": 36641,
    "Rober": 45232,
    "Ġnurs": 41071,
    "ĠNY": 47911,
    "Ġassert": 32928,
    "Ġshare": 29123,
    "avor": 31751,
    "Ġbuck": 44728,
    "ĠObs": 26803,
    "De": 49067,
    "Ġaccompany": 18994,
    "ĠNash": 18995,
    "ĠBlu": 19008,
    "Ġblow": 19025,
    "ĠSche": 32193,
    "Ġunh": 19028,
    "Ġand": 19031,
    "oci": 47360,
    "ĠRoose": 19042,
    "Ġyield": 38872,
    "Res": 42092,
    "Lin": 19059,
    "count": 19060,
    "ĠBrew": 38567,
    "Ġdys": 49856,
    "Ġrecon": 49339,
    "achel": 19080,
    "Ġshall": 19082,
    "Ġglim": 40971,
    "ĠPo": 19102,
    "ns": 48987,
    "reat": 34312,
    "ĠInter": 48786,
    "ĠSacrament": 19120,
    "Ġtime": 41097,
    "Ġposition": 21842,
    "iov": 19126,
    "ĠFif": 48887,
    "ĠRodrig": 45943,
    "ĠNig": 28517,
    "ĠLad": 37146,
    "Ġaggreg": 46245,
    "with": 33224,
    "ĠâĶ": 33213,
    "Ġinsect": 19180,
    "ASH": 19181,
    "ĠZh": 32889,
    "Ġhorr": 32561,
    "ĠSurv": 41559,
    "Def": 36366,
    "Ġcommod": 24137,
    "Ġforb": 43859,
    "Ġcarb": 19221,
    "ĠChance": 19222,
    "ĠBangl": 19228,
    "Ġband": 49146,
    "Ġhalf": 19232,
    "rit": 46255,
    "Ġspin": 38874,
    "ĠWH": 44670,
    "Ġneighbour": 29017,
    "Ġpecul": 19246,
    "Ġincl": 36538,
    "Ġprosper": 32502,
    "oul": 41778,
    "Ġfool": 37068,
    "terror": 41747,
    "Ġflaw": 38615,
    "do": 44677,
    "ĠHung": 42684,
    "Ġprotocol": 19310,
    "ĠMarg": 19324,
    "chn": 19332,
    "Ġapart": 38009,
    "Ġrein": 49880,
    "occ": 19341,
    "ĠPH": 47866,
    "Ġsun": 43966,
    "ĠSud": 19355,
    "Dis": 49099,
    "Cal": 19364,
    "????": 35454,
    "Ġrecruit": 19369,
    "Cons": 48851,
    "ĠClar": 19380,
    "ĠNorm": 42976,
    "Ġvalid": 30776,
    "ms": 24741,
    "ĠMechan": 47315,
    "Ġforeign": 44642,
    "ĠPow": 33433,
    "BI": 47517,
    "Ġshell": 19424,
    "Ġtrop": 43020,
    "ĠHug": 25675,
    "Ġaest": 35176,
    "ĠAgric": 36439,
    "author": 19466,
    "mont": 19474,
    "priv": 19479,
    "ĠOd": 27777,
    "ĠBaghd": 19506,
    "Aust": 39990,
    "ĠWiki": 19511,
    "ĠMoh": 29419,
    "atch": 19520,
    "Sub": 44880,
    "Ġ{": 48428,
    "emet": 19530,
    "Ġnotice": 33497,
    "img": 19536,
    "ALL": 19552,
    "itch": 48168,
    "Ġfict": 46463,
    "ĠTri": 41082,
    "Ġretrie": 49867,
    "Ġstimul": 49626,
    "Ġhomosexual": 35400,
    "Ġelement": 25346,
    "Ġintrig": 38265,
    "Ġfo": 19573,
    "its": 48024,
    "Ġcongr": 19578,
    "ĠAven": 45015,
    "Ġank": 42160,
    "Ġnational": 32187,
    "ophob": 23213,
    "ator": 30477,
    "Ġaggress": 19600,
    "Ġhed": 19604,
    "Ġremote": 19608,
    "Ġcompr": 28634,
    "avan": 19617,
    "Ġprol": 28637,
    "Ġpositive": 19633,
    "Ġstar": 46969,
    "ĠRain": 19654,
    "ĠFO": 40990,
    "ĠTom": 47522,
    "Ġbell": 45702,
    "Ref": 45983,
    "Ġintu": 31308,
    "Ġdiscont": 39529,
    "ĠPract": 41879,
    "ĠWorld": 32885,
    "ĠHerm": 19704,
    "Ġindict": 19720,
    "Ġabort": 19730,
    "Ġeleg": 48943,
    "ĠHud": 19740,
    "ĠHop": 20928,
    "ĠJun": 49203,
    "ĠFle": 42184,
    "Ġ15": 26167,
    "Ġhabit": 48800,
    "ĠSteven": 38426,
    "lish": 19765,
    "ĠDom": 28760,
    "Ġbless": 28133,
    "Ġliqu": 37981,
    "Ġabund": 48989,
    "Ġbull": 49824,
    "Ġsummon": 40037,
    "cle": 27518,
    "ĠErd": 19810,
    "ĠYan": 36813,
    "ĠRaven": 19836,
    "ĠTOD": 19837,
    "rent": 34113,
    "ĠSold": 27924,
    "Ġhilar": 19850,
    "Ġinherent": 19853,
    "REL": 19857,
    "Ġdece": 38411,
    "heart": 19867,
    "ĠLeon": 37828,
    "ĠPop": 22368,
    "gom": 19887,
    "Ġye": 44387,
    "Ġsubur": 20785,
    "ical": 19900,
    "gener": 41102,
    "Ġmoist": 40934,
    "Ġè£ı": 34249,
    "ĠBeh": 20532,
    "ĠToy": 35142,
    "Ġmaneu": 38719,
    "Ge": 33173,
    "Ġfortun": 39700,
    "Ġcryptoc": 29505,
    "Ġmetabol": 49319,
    "step": 19959,
    "ract": 40195,
    "Ġrecover": 19967,
    "Ġcort": 41292,
    "Ġprejud": 39545,
    "Ġstorm": 33742,
    "27": 29552,
    "Ġdesp": 46779,
    "Lear": 48232,
    "Ġcolor": 33733,
    "Ġsymp": 23605,
    "Ġworks": 44318,
    "Ġweakness": 20001,
    "ogg": 48294,
    "Ġrou": 40889,
    "Ġhint": 27133,
    "Christ": 44359,
    "Ġacceler": 43964,
    "Ġartif": 23872,
    "ĠNich": 40110,
    "ĠBa": 39393,
    "ĠSal": 46605,
    "igg": 44302,
    "ĠWest": 46694,
    "Ġpool": 44507,
    "ĠSchool": 20102,
    "ĠAR": 43673,
    "Ġself": 45151,
    "33": 31893,
    "Ġraid": 48462,
    "KE": 20118,
    "Ñ": 45112,
    "Ġunp": 42431,
    "ĠCabin": 20129,
    "Ġprox": 41520,
    "ĠGib": 47148,
    "Ġhur": 42931,
    "Ġadvis": 46256,
    "ĠKnow": 28899,
    "sequ": 44144,
    "ĠGun": 40582,
    "ĠFort": 37968,
    "bal": 27498,
    "Ġsand": 43784,
    "ĠCD": 36476,
    "Ġbra": 37553,
    "Ġextrem": 30827,
    "Ġbot": 44408,
    "UM": 38085,
    "Ġmaxim": 48095,
    "Ġincon": 20233,
    "ĠParad": 37728,
    "âĸĪâĸĪ": 20248,
    "And": 42736,
    "Ġanten": 43558,
    "Ġrail": 47335,
    "Ġtoug": 27957,
    "Ġsne": 48675,
    "RA": 44445,
    "Ġliv": 20277,
    "30": 26640,
    "ĠGene": 20297,
    "Ġunbel": 20299,
    "Orig": 39433,
    "ĠNorth": 29942,
    "Ġprolong": 20318,
    "ĠSak": 20319,
    "Ġinadequ": 20322,
    "ĠImpro": 23870,
    "Ġcurric": 20328,
    "Ġdict": 34799,
    "ĠList": 20345,
    "ĠDiff": 43540,
    "ĠBroad": 43989,
    "ĠZe": 47192,
    "akes": 20366,
    "Ġpropri": 37835,
    "Ġoil": 20374,
    "Ġdil": 37681,
    "Ġdecent": 20394,
    "ĠGreg": 20398,
    "ĠAmb": 20401,
    "ong": 44039,
    "Ġexceed": 32181,
    "ĠJosh": 20445,
    "ET": 32461,
    "Ġexpend": 22640,
    "Ġdelight": 32072,
    "Ġreferen": 32323,
    "Ġneutral": 20468,
    "Ġbod": 20479,
    "Ġthick": 28920,
    "Ġpredomin": 45463,
    "Ġcorrid": 32552,
    "Ġenroll": 20498,
    "uster": 20506,
    "Ġindirect": 20507,
    "ĠBeaut": 23507,
    "walk": 43810,
    "fun": 20531,
    "Ġappet": 20533,
    "Ġafore": 20539,
    "ope": 20553,
    "Ġcoh": 39927,
    "Ġmerch": 21524,
    "ĠLegisl": 30101,
    "Ġextensive": 20568,
    "Ġrig": 48529,
    "Ġsurvey": 20585,
    "ĠDan": 20594,
    "prising": 20604,
    "commun": 32305,
    "Ġtriv": 20606,
    "ise": 38022,
    "Ġplaint": 21625,
    "ĠReview": 20616,
    "ĠSug": 34787,
    "Ġstretch": 20625,
    "Ġinflamm": 23505,
    "ĠEnt": 41816,
    "ĠLu": 43061,
    "ym": 21754,
    "ĠAsh": 41143,
    "ĠRequ": 26593,
    "ĠViol": 35360,
    "oint": 49550,
    "You": 33614,
    "Ġpersonal": 28694,
    "Ġware": 43420,
    "rict": 45959,
    "01": 38848,
    "Ġreward": 23149,
    "akespe": 20691,
    "Ġeleph": 25113,
    "Ġbip": 30915,
    "Ã©": 42190,
    "undred": 20705,
    "Com": 49994,
    "Ġpersu": 41529,
    "Ġje": 22196,
    "Ġfrag": 42710,
    "ole": 25382,
    "ny": 20798,
    "Ġow": 39355,
    "ĠHon": 44874,
    "ros": 39059,
    "Ġcoinc": 47132,
    "ĠPrim": 43919,
    "Ġpitch": 20833,
    "ĠGO": 20835,
    "ĠVen": 33029,
    "ĠCase": 20842,
    "Ġsad": 25048,
    "Ġtub": 42873,
    "ĠQueens": 20850,
    "Bel": 20851,
    "Ġwip": 45887,
    "Ġmodel": 29308,
    "Any": 39773,
    "ance": 20875,
    "Ġshield": 44898,
    "Ġcard": 47671,
    "Ġeuro": 37210,
    "Ġcondition": 31709,
    "Ġmicro": 46697,
    "Ġappar": 20897,
    "ĠAh": 23897,
    "Ã¡": 39883,
    "ĠArm": 48779,
    "mid": 20929,
    "Ġcens": 43592,
    "ĠPier": 46811,
    "Ġcaut": 39385,
    "Aud": 20951,
    "Z": 48671,
    "Ġforth": 20965,
    "aff": 48246,
    "Ġsquee": 39982,
    "ĠClin": 26435,
    "Ġextract": 37640,
    "verse": 20988,
    "ĠRand": 39590,
    "ĠMap": 20994,
    "ĠSS": 33570,
    "ļ": 20998,
    "Ġvibr": 37816,
    "HA": 47197,
    "Ġgreet": 31678,
    "Ġinto": 21020,
    "Ġcul": 40834,
    "ĠColomb": 40096,
    "ĠEll": 44546,
    "lin": 34125,
    "alky": 21061,
    "inos": 21062,
    "ĠSteel": 21068,
    "Current": 21072,
    "ĠBarn": 37919,
    "Ġflags": 21081,
    "Ġgra": 34120,
    "Jan": 21084,
    "ĠElement": 25080,
    "ĠAthen": 21086,
    "ĠTreat": 21160,
    "Leg": 38008,
    "Ġunst": 39926,
    "enge": 21109,
    "Ġobs": 24706,
    "ĠDog": 21112,
    "FOR": 21134,
    "ĠWin": 42499,
    "ĠAssass": 48720,
    "Ġnic": 36342,
    "Ġdisadvant": 38202,
    "Ġgas": 47185,
    "çļ": 21155,
    "ĠArn": 21163,
    "olic": 47352,
    "div": 21171,
    "Pre": 48580,
    "ĠDar": 49570,
    "ĠBurn": 45784,
    "Ġsmooth": 21206,
    "Sty": 21211,
    "aly": 21215,
    "ĠThanks": 21239,
    "ĠVeh": 31110,
    "ĠKen": 46959,
    "ĠHA": 21260,
    "Ġende": 27996,
    "ĠDream": 21272,
    "Ġrebell": 43605,
    "Ġinstrument": 21288,
    "Ġtherape": 21291,
    "Ġinfant": 21293,
    "vey": 21308,
    "ĠRoll": 47234,
    "Ġid": 49620,
    "Mer": 21328,
    "ĠLie": 46269,
    "Ġunch": 21333,
    "ĠCrime": 47807,
    "ball": 21336,
    "Ġdepth": 21338,
    "Ġempir": 21339,
    "Ġuns": 47925,
    "Tex": 21352,
    "eth": 38291,
    "Ġdiscover": 24107,
    "ĠPy": 44699,
    "Ġminer": 21367,
    "Ġgri": 46052,
    "ĠColon": 37471,
    "Ġpaint": 21386,
    "Ġoverlook": 21400,
    "ĠHelp": 21401,
    "Ġoverwhelming": 21403,
    "ĠMerc": 49714,
    "Ġalert": 28353,
    "zb": 40158,
    "ĠRichards": 21424,
    "Ġlower": 21428,
    "Ġguard": 33039,
    "äº": 49135,
    "ĠPil": 46185,
    "ipe": 21445,
    "unk": 34425,
    "Ġoverl": 32742,
    "ĠGit": 21467,
    "ĠBapt": 21469,
    "Ġlung": 21471,
    "38": 36371,
    "Ġspat": 21484,
    "vid": 21489,
    "Back": 21501,
    "Ġlone": 21502,
    "she": 41756,
    "Ġadmin": 21511,
    "ĠSocial": 40152,
    "ĠLind": 32872,
    "Ġgrant": 21532,
    "ĠSir": 34206,
    "Ġfur": 45931,
    "BS": 21545,
    "\\\\\\\\": 21552,
    "comm": 26544,
    "Ġnick": 35531,
    "Feb": 21561,
    "Ġseason": 46539,
    "ĠJen": 39505,
    "Ġundert": 45475,
    "Ġenthusi": 41790,
    "Ġgovernment": 21595,
    "Ġawa": 39321,
    "ĠMen": 21605,
    "But": 21609,
    "ĠShan": 48651,
    "Ġdies": 21611,
    "Ġinacc": 47028,
    "edd": 46983,
    "Ġpremium": 21629,
    "UR": 47014,
    "otten": 21634,
    "Ġmail": 37027,
    "ĠConfeder": 44997,
    "Ġjuven": 48405,
    "Ġreact": 33158,
    "Introdu": 36888,
    "inn": 49453,
    "Ġcome": 21678,
    "Sund": 21679,
    "Ġinjust": 21687,
    "role": 21690,
    "Comp": 44414,
    "Ġcounsel": 43880,
    "hed": 45831,
    "ĠPR": 47751,
    "Ġscan": 27219,
    "Ġweigh": 23779,
    "Ġaston": 40707,
    "ĠReyn": 21740,
    "Ġtrain": 28259,
    "Ġsurg": 21743,
    "whe": 25101,
    "ĠHend": 42221,
    "Ġtheir": 21766,
    "Dam": 43088,
    "Europe": 21775,
    "exp": 37756,
    "Ġscreens": 23067,
    "ĠPers": 46197,
    "Ġmonop": 30542,
    "ĠReds": 21783,
    "\">": 23729,
    "Ġcinem": 29677,
    "ĠAlf": 21789,
    "22": 34039,
    "Ġreck": 49399,
    "Ġlisten": 21799,
    "Ġvast": 21801,
    "ĠScient": 33119,
    "ĠLegend": 21812,
    "ĠGand": 21826,
    "Ġsuscept": 43049,
    "Ġshr": 38645,
    "Hel": 47174,
    "ĠCustom": 36452,
    "Sum": 33305,
    "Ġbron": 21846,
    "ĠEnh": 32744,
    "rec": 30768,
    "als": 31803,
    "Ġbrew": 47440,
    "ĠMS": 48809,
    "ĠAz": 29485,
    "Ġrenown": 21885,
    "ĠOut": 48884,
    "ĠUnder": 44755,
    "rim": 23495,
    "ĠNar": 21915,
    "ĠMajor": 21916,
    "jo": 46161,
    "ĠWrit": 37477,
    "Ġpossess": 25311,
    "ĠFran": 39923,
    "uch": 47767,
    "Ġbright": 34999,
    "Ġecho": 39660,
    "Ġgodd": 43291,
    "ĠAur": 21963,
    "ĠLog": 49843,
    "Ġparad": 31099,
    "ĠMatthew": 21978,
    "ĠCOM": 49014,
    "dog": 21987,
    "Rich": 21990,
    "ĠMax": 38707,
    "Ġstuff": 43417,
    "oad": 22018,
    "que": 36305,
    "ĠTim": 42785,
    "ĠSav": 40692,
    "Gl": 47443,
    "aur": 34935,
    "))": 35259,
    "Ġseek": 45738,
    "Ġnost": 22059,
    "Ġacadem": 34071,
    "Ġteasp": 46979,
    "Ġseiz": 24460,
    "irt": 22086,
    "osa": 22089,
    "...": 44570,
    "Ġneuro": 41926,
    "Ġtum": 37809,
    "ĠLl": 22106,
    "Ġstere": 30985,
    "Red": 22112,
    "23": 25412,
    "Ġdisappear": 22120,
    "Ġpedest": 26480,
    "Ġjer": 36099,
    "Ġantib": 35502,
    "ĠEV": 49006,
    "och": 22145,
    "icult": 47173,
    "Ġmisdem": 22148,
    "ĠEqu": 47381,
    "Fil": 39495,
    "ĠMun": 22163,
    "ĠCro": 22167,
    "Ġaccum": 44402,
    "ĠSpecific": 22171,
    "Ġgentle": 28272,
    "acer": 22173,
    "Ġinterven": 37039,
    "ĠRef": 42959,
    "ĠAlz": 22179,
    "Ġmiser": 22189,
    "Ġdefect": 31874,
    "Ġash": 45562,
    "ĠRest": 41764,
    "Ġpoison": 31944,
    "ĠWord": 22222,
    "bott": 22232,
    "Ġ#": 46169,
    "Ġintr": 48672,
    "ster": 41736,
    "Ġcaffe": 22256,
    "Ġtab": 35893,
    "ĠPay": 49083,
    "abul": 22273,
    "Ġnegative": 22278,
    "Ġambul": 22281,
    "ĠKit": 22286,
    "Ġborrow": 39485,
    "Ġuniform": 41841,
    "ener": 23901,
    "qual": 22302,
    "Ġrall": 32282,
    "Ġgang": 22306,
    "lu": 39956,
    "Ġwell": 42251,
    "Ġconstitu": 43487,
    "29": 33296,
    "icular": 22330,
    "Ġtoss": 37177,
    "Ġrelie": 48205,
    "ĠOw": 36752,
    "Bit": 22359,
    "iche": 22362,
    "Ġchrom": 22375,
    "Ġjewel": 22379,
    "Ġhuge": 22386,
    "ustom": 22391,
    "ĠLike": 45719,
    "ĠSupp": 45012,
    "Ġhands": 22410,
    "Ġcrack": 22416,
    "@@": 22420,
    "Ġthought": 22422,
    "names": 22423,
    "Ġprost": 37578,
    "bus": 22425,
    "person": 22427,
    "ĠÂłĠÂł": 22431,
    "ĠCole": 22432,
    "Ġcatast": 27512,
    "Ġlegitim": 22471,
    "Ġdefic": 33334,
    "Ġcontam": 23288,
    "ownt": 22493,
    "ļé": 22502,
    "char": 22514,
    "ĠProv": 46826,
    "ĠSeb": 22532,
    "Ġschizophren": 22539,
    "health": 22541,
    "Ġbarg": 22934,
    "Ġexped": 22562,
    "ĠAD": 48914,
    "feed": 22569,
    "isp": 26893,
    "âĢ¢": 22583,
    "Start": 22596,
    "ĠKle": 22609,
    "cycl": 22618,
    "xt": 42660,
    "urd": 42313,
    "Ġenvelop": 22623,
    "Ġmyth": 36816,
    "Ġhes": 41468,
    "ĠLen": 40014,
    "Ġunpredict": 22645,
    "ĠCON": 39707,
    "Tok": 22651,
    "MA": 22666,
    "ĠBal": 38729,
    "Ġincomp": 47502,
    "Pac": 22678,
    "Ġmast": 22683,
    "Ġge": 45448,
    "Ġtraject": 22687,
    "Ġdistract": 37830,
    "Ġrug": 30702,
    "Ġrespir": 22694,
    "Ġluc": 45209,
    "Ġresemb": 37402,
    "ĠGN": 40084,
    "ĠDer": 32724,
    "Par": 40058,
    "Ġbroadcast": 30168,
    "hol": 37434,
    "ĠHus": 22728,
    "ĠCourt": 36422,
    "Ġstory": 44625,
    "ãĤ´": 22742,
    "Ġproud": 22762,
    "Ġstaff": 47076,
    "Ġopio": 38777,
    "Ġlegal": 44298,
    "OT": 38950,
    "Ġtask": 22797,
    "ĠACT": 40027,
    "Ġrefres": 46938,
    "ĠPere": 22803,
    "Ġinfring": 43243,
    "List": 32997,
    "Ġoutrage": 22822,
    "ĠValent": 22823,
    "Ġcultiv": 45159,
    "ÃĥÃĤÃĥÃĤÃĥÃĤÃĥÃĤÃĥÃĤÃĥÃĤÃĥÃĤÃĥÃĤ": 22835,
    "Ġmetaph": 49355,
    "Ġfright": 24521,
    "pher": 22856,
    "Ġloud": 48537,
    "Ġwarm": 22870,
    "Ġcomed": 43265,
    "Ġpaper": 46516,
    "Ġpour": 22892,
    "Ġcruel": 22897,
    "Ġimper": 23347,
    "Ġinaug": 26596,
    "Ġembod": 34158,
    "ĠPrinc": 40666,
    "ĠAndre": 33473,
    "Ġincorrect": 22920,
    "Ġslee": 27154,
    "ĠArc": 26220,
    "ters": 22937,
    "................................": 22938,
    "ĠJackson": 22939,
    "ĠFood": 22946,
    "Ġmad": 22953,
    "Ġul": 22957,
    "Ġinitial": 47268,
    "ĠPass": 46984,
    "ĠEth": 47766,
    "ĠEmb": 22978,
    "Ġsort": 29152,
    "She": 22993,
    "Ġhall": 44740,
    "ĠBur": 40051,
    "ĠPartners": 23015,
    "Ġpenet": 41592,
    "ĠFront": 23026,
    "Ġdavid": 23027,
    "ĠNut": 36757,
    "Ġâĸ": 34678,
    "uter": 23059,
    "acc": 43297,
    "İ": 23074,
    "Ġproc": 23109,
    "Ġhook": 26314,
    "Ġdisgust": 23119,
    "Men": 23126,
    "Ġkidn": 49424,
    "Ġcreep": 48845,
    "ĠSpons": 23134,
    "Ġcycl": 34377,
    "ĠGob": 23136,
    "bet": 31106,
    "Ġincap": 38278,
    "squ": 23160,
    "Ġnit": 23162,
    "Ġdupl": 49869,
    "Ġmamm": 45922,
    "ĠWinn": 23179,
    "ĠNS": 23183,
    "etermin": 29355,
    "Ġmush": 28265,
    "ĠDisco": 23200,
    "Ġdevelopment": 23201,
    "Ġcha": 23203,
    "Ġbacter": 23207,
    "Ġcos": 39130,
    "Ġdimin": 34942,
    "Ġmic": 23224,
    "Ġgram": 23236,
    "Ġcurs": 24900,
    "aunder": 23241,
    "Ġfeas": 40205,
    "ĠPub": 31876,
    "ĠFerr": 23247,
    "Ġstagger": 23253,
    "rest": 49088,
    "Ø§": 33992,
    "Ġincumb": 23271,
    "ĠAnim": 36237,
    "Ġbrand": 23895,
    "ĠAbd": 23292,
    "Ġparagraph": 23294,
    "ĠCharg": 44365,
    "Ġprest": 28808,
    "hist": 31049,
    "ĠDod": 23321,
    "Gr": 48145,
    "Ġretro": 23328,
    "ĠRoberts": 23335,
    "ĵ": 23341,
    "spec": 23344,
    "Ġstate": 23350,
    "ĠCross": 42495,
    "è¦": 23359,
    "Stand": 43941,
    "Ass": 48647,
    "ĠCertain": 23376,
    "Ġquarterback": 23388,
    "ĠSter": 23392,
    "mb": 45409,
    "ĠReal": 35719,
    "Ġprotest": 36660,
    "Ġrehab": 44282,
    "Ġerupt": 23426,
    "erc": 23442,
    "Ġevac": 36061,
    "ĠClear": 23475,
    "Rec": 37268,
    "ĠSurviv": 45743,
    "Ġscrew": 27272,
    "parent": 23488,
    "ma": 23490,
    "vas": 23492,
    "Ġhell": 23493,
    "Ep": 23503,
    "Ġbat": 42187,
    "ĠTact": 26729,
    "ha": 42693,
    "Ġgrass": 23528,
    "\"]": 33916,
    "Ġsubp": 23546,
    "ĠHuff": 34875,
    "Ġcum": 44137,
    "ĠVi": 23570,
    "Ġlean": 23576,
    "Ġfreed": 23586,
    ",,": 23591,
    "ĠOwn": 32892,
    "Tri": 23599,
    "Ġub": 23606,
    "Ġoutput": 23607,
    "ĠFall": 42659,
    "ĠBou": 23634,
    "ĠSom": 39624,
    "ĠIncre": 38666,
    "================================": 23671,
    "Ġaffidav": 23687,
    "ĠAdvis": 47406,
    "psy": 23692,
    "ĠField": 23693,
    "Ġhasht": 23695,
    "ĠNight": 43222,
    "rosso": 23699,
    "Ġface": 23705,
    "Ġtomat": 23717,
    "Ġimpair": 23737,
    "Ġswift": 23739,
    "ĠGlas": 23740,
    "Ġwholes": 23750,
    "ched": 23760,
    "::": 23767,
    "ĠGil": 46914,
    "Ġillness": 23769,
    "Ġheter": 49508,
    "Ġhere": 49657,
    "ĠBeng": 28375,
    "70": 36554,
    "Ġjoint": 26658,
    "na": 46835,
    "ĠDat": 23792,
    "aud": 31075,
    "Ġsidew": 38027,
    "Ġpractition": 31855,
    "ĠPen": 46720,
    "Ġgrat": 47204,
    "over": 23830,
    "Ġagree": 49279,
    "Bey": 23847,
    "Ġdump": 29976,
    "hib": 48969,
    "Ġinspect": 49634,
    "Ġresearch": 23859,
    "ĠCelt": 27731,
    "Ġalarm": 23873,
    "Ġweaken": 34737,
    "Ġunique": 23884,
    "ĠGro": 23889,
    "ĠCore": 23899,
    "Ġinherit": 23900,
    "Ġunpop": 23911,
    "Ġmel": 48558,
    "stan": 23924,
    "ustain": 23941,
    "ĠHold": 43138,
    "xxxx": 23968,
    "Ġmit": 46910,
    "ĠRay": 23983,
    "Ġtom": 23985,
    "Det": 47249,
    "ĠLuck": 24007,
    "zy": 46100,
    "Intern": 28311,
    "ĠSadd": 24022,
    "Ġtruth": 42023,
    "Ġnort": 37876,
    "ĠCond": 28324,
    "------------": 32246,
    "ĠMess": 43279,
    "Ġgate": 24053,
    "ĠMaterial": 24055,
    "Ġslic": 49034,
    "Ġemail": 24060,
    "Ġren": 47773,
    "ody": 24064,
    "ĠSouth": 29780,
    "get": 41927,
    "prot": 42591,
    "ĠZimmer": 24077,
    "Ġtelesc": 41812,
    "Ġric": 34745,
    "Ġna": 41237,
    "respons": 39517,
    "Quest": 35486,
    "ĠWire": 24110,
    "Ġpuzz": 42440,
    "cript": 24115,
    "XX": 42890,
    "rox": 24123,
    "ĠACL": 24126,
    "ĠCompan": 30398,
    "Co": 45698,
    "Ġindef": 35384,
    "Ġoun": 25544,
    "Ġiter": 41058,
    "ĠGonz": 24161,
    "Ġlivest": 49428,
    "deb": 24434,
    "Ġstub": 24189,
    "ĠDay": 47488,
    "fil": 34090,
    "Ġ.": 47285,
    "Ġtor": 49242,
    "ĠBash": 24208,
    "Ġunbeliev": 48688,
    "ĠHass": 24230,
    "Ġpa": 37367,
    "Pub": 46216,
    "viol": 37247,
    "ĠCraw": 24244,
    "Gu": 47634,
    "Ġwand": 35781,
    "Ġpadd": 44327,
    "Ġwhistle": 24261,
    "ĠIdent": 38402,
    "ĠTermin": 41575,
    "Legend": 24269,
    "ĠAT": 40796,
    "ĠStar": 43942,
    "ĠBott": 33353,
    "ĠEug": 24277,
    "ĠWy": 38762,
    "Ġpse": 24783,
    "ĠRh": 47504,
    "ĠNOT": 28281,
    "Ġcock": 34026,
    "ECT": 24310,
    "Ġfalse": 36855,
    "ĠVictor": 24314,
    "Ġdistribut": 32357,
    "ĠAub": 24324,
    "ĠThrough": 24326,
    "Ġsacrific": 32443,
    "Ġdwar": 39903,
    "More": 24351,
    "Ġtang": 41176,
    "ops": 24353,
    "ĠMine": 24354,
    "ĠRegist": 46184,
    "ĠInspect": 24370,
    "Ġfraud": 24372,
    "EL": 37483,
    "ĠAdmir": 24391,
    "ĠEmploy": 36569,
    "ĠKash": 24409,
    "Ġbol": 49392,
    "Ġunre": 24418,
    "Ġconced": 49612,
    "Ġhome": 49592,
    "ĠBi": 32572,
    "ED": 24451,
    "ĠDecl": 24465,
    "ĠKat": 36460,
    "Ġsatur": 36020,
    "Ġtroll": 37843,
    "Dev": 24473,
    "ãĥīãĥ©": 24476,
    "ba": 24483,
    "ilib": 24486,
    "ĠKush": 24488,
    "Bus": 24494,
    "Ġnarc": 36269,
    "Ġinterrog": 49218,
    "36": 35412,
    "Ġâľ": 28242,
    "Ġcryst": 31323,
    "Mart": 24523,
    "Ġdecor": 39543,
    "aa": 45816,
    "Nob": 24540,
    "Ġgig": 24549,
    "Ġnorth": 47909,
    "Ġexception": 24567,
    "ring": 37974,
    "ĠAqu": 24583,
    "Ġcomr": 47743,
    "Ġremember": 24610,
    "ĠChem": 27612,
    "post": 40323,
    "ĠEmir": 24625,
    "ĠTru": 49191,
    "ĠWi": 24649,
    "Ġcyl": 43131,
    "Step": 24665,
    "ĠOpp": 29305,
    "Ġsubmar": 33776,
    "ĠKas": 24676,
    "Forge": 24679,
    "ĠâĨ": 24680,
    "ĠMat": 45269,
    "Further": 24696,
    "keep": 24697,
    "chie": 24702,
    "Ġfuel": 43626,
    "Ġreminis": 24705,
    "Ġinteract": 48981,
    "Ġexting": 24740,
    "ĠStrateg": 40741,
    "Ġmeth": 39023,
    "Ġwrong": 41290,
    "Ġmembr": 43192,
    "ĠBor": 24771,
    "Ġdetain": 49181,
    "Ġwhis": 48253,
    "Prof": 48883,
    "ĠBrist": 24785,
    "ĠInterest": 43325,
    "Ġec": 46389,
    "ĠHait": 48468,
    "Ġpoly": 33941,
    "Hand": 37253,
    "Ġprolifer": 24813,
    "Ġdisreg": 24815,
    "ela": 24823,
    "Ļ": 49904,
    "Ġdivor": 24852,
    "ĠHay": 41705,
    "Ġsab": 24863,
    "++++": 24873,
    "ĠWeb": 31635,
    "ĠDI": 41987,
    "Ã¼": 24896,
    "ĠCurt": 24902,
    "ĠSach": 24903,
    "ĠFram": 36036,
    "ĠLGBT": 24917,
    "ĠNic": 40835,
    "Ġguess": 44519,
    "Ġperpet": 43619,
    "Net": 42571,
    "dev": 41779,
    "auc": 38016,
    "TY": 24961,
    "ump": 31897,
    "ĠTerrit": 42099,
    "Ġathe": 38110,
    "&": 24971,
    "Ġtall": 48474,
    "Ġ@": 24993,
    "Ġbureaucr": 33770,
    "ĠSky": 37995,
    "At": 25000,
    "Bet": 43048,
    "ĠTun": 35608,
    "28": 32313,
    "ĠHas": 49227,
    "ĠBund": 35004,
    "Calif": 25029,
    "Ġexagger": 42514,
    "Ġiron": 32277,
    "ĠProtest": 41458,
    "Ġspont": 37257,
    "Ġdescend": 45668,
    "Japan": 25069,
    "Ġfinger": 34035,
    "Mem": 30616,
    "ĠBack": 34816,
    "Ġvoc": 48113,
    "Matt": 25117,
    "ĠIM": 45070,
    "John": 44705,
    "ablish": 25125,
    "BIL": 49261,
    "Ġpin": 30279,
    "Ġcancell": 25140,
    "ĠAst": 34912,
    "umn": 25147,
    "Sem": 28498,
    "Soft": 25168,
    "spons": 25172,
    "mans": 25173,
    "Ġfilter": 25176,
    "Ð¾": 25188,
    "Ġadolesc": 37003,
    "onge": 25199,
    "ĠMethod": 37774,
    "å¤": 31759,
    "ĠBatt": 29632,
    "Ġgre": 44949,
    "Ġgard": 45817,
    "Ġconting": 38565,
    "ĠLeaf": 25224,
    "ĠInv": 41416,
    "Ġrelent": 37697,
    "cyclop": 25242,
    "ĠHD": 48612,
    "Item": 46943,
    "Ġumb": 25255,
    "Ġperipher": 46373,
    "Ġradio": 25266,
    "ĠOp": 47602,
    "Ġboard": 34777,
    "×": 49972,
    "Ġthank": 36053,
    "mo": 25283,
    "umbled": 25294,
    "ĠOccup": 47972,
    "Ġheight": 25301,
    "Ġlun": 25317,
    "Ġfest": 43601,
    "ĠPv": 25321,
    "ĠScript": 41367,
    "Ġ$": 39856,
    "Other": 47804,
    "âĢĵ": 25353,
    "GG": 25356,
    "Ġskelet": 29887,
    "Ġpup": 33792,
    "link": 25359,
    "ĠSH": 49908,
    "Brit": 36859,
    "ĠSN": 48337,
    "Ġswing": 25380,
    "ĠTro": 47183,
    "ran": 35568,
    "00000000": 25390,
    "Ġfut": 36446,
    "quest": 25397,
    "Ġlater": 25398,
    "ĠRhod": 25401,
    "?????": 25403,
    "FI": 44348,
    "Ġsuck": 48176,
    "ĠLaure": 43187,
    "Ġdiscount": 29431,
    "=\"": 35667,
    "ĠSet": 44748,
    "ĠMid": 47734,
    "ĠEX": 27234,
    "Ġstain": 25449,
    "Ġcountry": 25453,
    "Ġstandard": 25458,
    "Ġlaund": 25469,
    "Ġrational": 45372,
    "ĠFail": 25488,
    "Ġnames": 49574,
    "field": 25492,
    "ĠObserv": 25503,
    "Ġsmell": 47835,
    "ĠMons": 25514,
    "ual": 41689,
    "Republic": 28200,
    "ĠMaj": 25533,
    "ĠEc": 39723,
    "Ġritual": 25542,
    "Ġrain": 37004,
    "opt": 39830,
    "ĠFam": 25558,
    "aked": 25562,
    "Ġkiss": 36289,
    "ĠFried": 45844,
    "Ġpir": 30700,
    "Ġgly": 39977,
    "ĠMA": 38879,
    "Offic": 33804,
    "Ġunexpected": 25629,
    "Ġimpress": 25630,
    ";;;;": 25632,
    "Ġsuprem": 36829,
    "Ġaggrav": 25635,
    "Ġabrupt": 25636,
    "Ġghost": 25644,
    "Top": 32966,
    "Ġreim": 25648,
    "ĠSee": 25658,
    "Ġrecy": 48659,
    "Cong": 44793,
    "Ġori": 25666,
    "ĠAltern": 42145,
    "ĠBuddh": 25677,
    "ĠJoy": 25681,
    "Ġho": 46898,
    "ĠCamb": 25705,
    "ĠIP": 41550,
    "39": 37455,
    "Ġstation": 31352,
    "Ġchick": 25717,
    "ĠBegin": 25721,
    "Ġvic": 25725,
    "ĠChurch": 25732,
    "may": 25736,
    "ĠCann": 49903,
    "Ġday": 32644,
    "ĠBrig": 25757,
    "ĠHann": 41694,
    "Ġcler": 47709,
    "Ġalcohol": 46271,
    "liv": 35005,
    "pat": 33024,
    "kins": 25775,
    "amm": 49232,
    "ĠSchne": 25784,
    "Ġprosec": 36327,
    "ĠTill": 25803,
    "ĠDeb": 40774,
    "ris": 47145,
    "ĠRestaur": 25823,
    "Ġhazard": 25827,
    "ĠStephan": 25830,
    "ext": 29641,
    "stat": 25835,
    "Rad": 25838,
    "ĠPhilos": 25844,
    "ĠKum": 25850,
    "ĠFreder": 25858,
    "Ġforecast": 40909,
    "ĠParticip": 34153,
    "des": 41120,
    "ĠBrend": 49240,
    "Ġstake": 25883,
    "ĠMillenn": 42573,
    "ĠSD": 45162,
    "Ġvag": 29876,
    "ĠJoe": 25899,
    "threat": 25904,
    "Ġnarrow": 46171,
    "Ġgren": 28595,
    "Ġanarch": 41406,
    "ĠProgram": 34977,
    "Ġpupp": 37538,
    "ĠSebast": 25935,
    "Ġtempt": 29595,
    "ĠDevil": 25944,
    "40": 32276,
    "ee": 45014,
    "Ġdepri": 28667,
    "Ġdefault": 25980,
    "rend": 25983,
    "ĠRug": 25989,
    "Ġdop": 25997,
    "Ġramp": 33785,
    "lo": 39335,
    "men": 26017,
    "Ġbetray": 29100,
    "Ġsouth": 45810,
    "ĠDex": 26029,
    "Ġethnic": 26034,
    "ĠNational": 26036,
    "á": 45240,
    "Ġwid": 45977,
    "Ġnep": 26046,
    "ĠLo": 49161,
    "ĠMarx": 30379,
    "Ġcontext": 38101,
    "ĠNort": 30467,
    "Ġgoal": 30816,
    "ĠBuzz": 26066,
    "Ġmim": 26077,
    "ĠKee": 26080,
    "Ġlear": 26083,
    "Ġmaj": 48310,
    "Ġweight": 26101,
    "Ġsick": 26104,
    "Ġdivid": 30239,
    "ices": 26127,
    "ĠLaun": 26130,
    "ĠVar": 38888,
    "enz": 26134,
    "Ġrival": 26135,
    "ĠBald": 26147,
    "Ġmarch": 26154,
    "Out": 30560,
    "zz": 47547,
    "ĠAndrew": 26159,
    "Bas": 31269,
    "ĠDec": 38832,
    "ete": 26170,
    "ĠRap": 27211,
    "ĠWag": 26196,
    "Ġdictators": 26202,
    "ĠNept": 26206,
    "Ġevangel": 44626,
    "Ġfilm": 49036,
    "ĠEnd": 47369,
    "Ġ29": 43081,
    "ĠSalv": 26227,
    "ĠSign": 49376,
    "atell": 26238,
    "pack": 43534,
    "Ġdecentral": 26257,
    "37": 37801,
    "Ġaccomplish": 29085,
    "ħ": 26279,
    "Ne": 46190,
    "Ġrecons": 26285,
    "ĠSerge": 35851,
    "ĠDian": 48942,
    "Ġstir": 32836,
    "ĠSpace": 26294,
    "ugg": 36040,
    "Ġtrigger": 26300,
    "Ġdile": 26311,
    "Ġburg": 34368,
    "ĠBren": 26322,
    "Ġdur": 26323,
    "Ġculp": 26326,
    "There": 26328,
    "Ġsin": 49024,
    "fight": 26339,
    "Ġvine": 26345,
    "ĠScar": 44791,
    "ĠApplic": 48962,
    "ita": 26372,
    "Ġplant": 49186,
    "Ġlobby": 34941,
    "Pan": 26384,
    "top": 46320,
    "Ġairst": 46249,
    "ĠMes": 26415,
    "Ġdrunk": 26425,
    "Ġcorner": 39519,
    "Ġhaun": 36405,
    "opp": 36931,
    "ĠWorks": 26446,
    "ĠSent": 26461,
    "ĠDrug": 26467,
    "Islam": 26468,
    "Ġconcess": 32875,
    "Ġfib": 32818,
    "Ġinstinct": 42790,
    "Sand": 26492,
    "Ġcorps": 26495,
    "ĠTR": 47958,
    "check": 40749,
    "oooo": 26504,
    "IL": 46909,
    "ĠSU": 26508,
    "Ġdwell": 49823,
    "Sil": 26511,
    "Ġcow": 42711,
    "Ġhorn": 41759,
    "Ġinhib": 49288,
    "ĠSpot": 48759,
    "Through": 26542,
    "Ġfont": 26551,
    "Ġpopul": 47329,
    "Child": 26574,
    "Ġastron": 47348,
    "ĠFinn": 26583,
    "Ġâī": 41050,
    "fig": 46041,
    "Ġtur": 40849,
    "Ġsuperior": 26628,
    "reens": 39296,
    "ĠLam": 36723,
    "ĠLes": 43542,
    "ĠBris": 26659,
    "Ġpump": 29834,
    "rah": 26667,
    "Ġsculpt": 42390,
    "Ġeyeb": 37965,
    "ĠLeaders": 26680,
    "Ġcorrupt": 26685,
    "ben": 36679,
    "ĠPTS": 26719,
    "ĠJuda": 26721,
    "ĠDynam": 41287,
    "?'": 26734,
    "ĠDead": 40193,
    "Ġmicrow": 26745,
    "irc": 26747,
    "dig": 41668,
    "Â¯Â¯Â¯Â¯Â¯Â¯Â¯Â¯": 26751,
    "ĠRoc": 47510,
    "Ġtake": 45051,
    "Ġacclaim": 26768,
    "ĠNep": 37848,
    "ĠKu": 26773,
    "ĠSan": 43735,
    "Ġdism": 37635,
    "Ġdatas": 40267,
    "Ġplanet": 26792,
    "ĠPeters": 48349,
    "ĠDO": 46729,
    "German": 26824,
    "Ġlou": 26834,
    "tes": 37167,
    "Ġbefore": 26836,
    "ĠTyp": 48497,
    "-+": 26842,
    "Ġambig": 33730,
    "Ġrib": 28837,
    "ood": 35783,
    "ĠSynd": 42016,
    "ĠKind": 26859,
    "ĠNeg": 35928,
    "Ġreiter": 49597,
    "ĠTon": 26862,
    "ĠCorn": 47959,
    "elf": 44404,
    "Ġx": 36215,
    "ĠLink": 26878,
    "Ġredes": 35985,
    "ĠCB": 26892,
    "Wed": 26895,
    "Ġoverturn": 26898,
    "Ġcontent": 26899,
    "~~~~~~~~": 26901,
    "oper": 46361,
    "Ġcouncil": 26919,
    "imb": 26920,
    "Ġstress": 43200,
    "Ġwheel": 26926,
    "Ġones": 26931,
    "________________________________": 26938,
    "Ġdin": 42286,
    "Ġarc": 34107,
    "Ult": 47637,
    "ĠSad": 26958,
    "Ġcub": 34641,
    "ĠSpect": 43973,
    "ĠEVER": 26967,
    "Ġincarcer": 33691,
    "ĠEver": 26972,
    "ĠSquad": 26987,
    "////////": 26991,
    "ĠNon": 26996,
    "Ġderiv": 28231,
    "ĠWW": 43177,
    "44": 39455,
    "ĠShort": 27010,
    "Char": 48138,
    "35": 35018,
    "ild": 45903,
    "pert": 27031,
    "educ": 40541,
    "Ġstrengthen": 27069,
    "Ġvisual": 38095,
    "ĠBeat": 27075,
    "Ġaspir": 49295,
    "Ġceremon": 39235,
    "Ġintimid": 36346,
    "Ro": 27097,
    "Ġpair": 27101,
    "Ġoverd": 49371,
    "SA": 27103,
    "34": 33405,
    "ĠPod": 27120,
    "Ġprofound": 27122,
    "inter": 45782,
    "Ġerr": 40328,
    "Ġmerc": 40363,
    "Ġfeather": 27145,
    "ĠHum": 45681,
    "ĠBan": 39803,
    "Ġvib": 30744,
    "Austral": 37781,
    "Ġfreel": 27194,
    "Ġevident": 27195,
    "Ġaster": 42843,
    "Mark": 27215,
    "Ġpsy": 38751,
    "ĠRou": 48283,
    "Ġsnap": 47532,
    "Ġpestic": 36211,
    "Ġdisgu": 31937,
    "Ġeld": 34076,
    "ucc": 27246,
    "Ġcontrace": 45040,
    "Deb": 27254,
    "ĠWheel": 27257,
    "Ġreconc": 33315,
    "Ġdiscour": 47746,
    "mm": 39878,
    "ĠVit": 27278,
    "âĸĳ": 27279,
    "ĠGar": 49957,
    "Ġmascul": 32435,
    "cap": 42149,
    "ĠBI": 27298,
    "ĠWat": 36577,
    "Ġresur": 27348,
    "Ġdepict": 27306,
    "Ġtail": 35025,
    "ĠMonth": 27318,
    "po": 47554,
    "ĠLot": 27323,
    "ĠLan": 27324,
    "Ġfront": 49726,
    "ĠHard": 49436,
    "=-=-": 27329,
    "Ġregener": 43264,
    "Ġenerg": 27343,
    "OH": 27345,
    "Ġboost": 47694,
    "requ": 47656,
    "ĠAC": 48009,
    "Ġheaven": 32016,
    "Dig": 27385,
    "Ġadvance": 46965,
    "Ġfet": 32615,
    "Ġstair": 27401,
    "ĠConsider": 27407,
    "ĠHans": 35437,
    "Donald": 27419,
    "ĠStra": 42716,
    "ĠDur": 30673,
    "Ġdisgr": 48712,
    "ĠRen": 43828,
    "ambo": 27453,
    "64": 42504,
    "Ġthri": 27468,
    "ĠInn": 44523,
    "Ext": 36461,
    "Att": 46064,
    "Off": 34264,
    "ĠSpl": 45020,
    "ĠInstruct": 47584,
    "ĠDisc": 49043,
    "Ġhal": 45333,
    "product": 29243,
    "board": 27539,
    "Pack": 27558,
    "Ġatroc": 27562,
    "ĠVern": 27565,
    "Ġexperiment": 41852,
    "dom": 34220,
    "Ġadvertis": 27580,
    "Ġunders": 44674,
    "Ġcaps": 43627,
    "William": 27614,
    "ĠAlexand": 27617,
    "ĠSpring": 27619,
    "ĠBlack": 42348,
    "Ġdement": 27631,
    "Ġubiqu": 27633,
    "ĠLO": 27634,
    "Ġconsolid": 38307,
    "Ġcream": 27637,
    "Reg": 47218,
    "ĠCert": 40354,
    "Capt": 49375,
    "Ġinsult": 39847,
    "ĠSor": 27645,
    "ĠBulgar": 27647,
    "ĠDavid": 27650,
    "Ġplag": 41799,
    "ĠGard": 29075,
    "Ġsr": 27669,
    "Ġpy": 27689,
    "101": 27701,
    "Ġswall": 45335,
    "ĠRew": 32052,
    "ĠYork": 37989,
    "Ġaffirm": 46110,
    "Ġtutorial": 27737,
    "Ġadul": 38458,
    "Ġsect": 47772,
    "88": 49032,
    "Ġcongest": 27759,
    "ĠWhere": 27761,
    "real": 27769,
    "ĠBab": 27773,
    "Similar": 27784,
    "ĠDoes": 27793,
    "ĠJoh": 27801,
    "Yes": 27810,
    "Pict": 27815,
    "ĠMac": 47832,
    "Ġunanim": 28100,
    "Ġhang": 44083,
    "Ġdisrupt": 44110,
    "ĠDomin": 36146,
    "ĠRevolution": 27850,
    "ĠNare": 27858,
    "cr": 27871,
    "Ġorche": 39840,
    "rie": 37163,
    "ĠGreen": 46447,
    "âĹ": 48111,
    "Ġunle": 33247,
    "ĠDani": 27907,
    "Ur": 46412,
    "ĠNPC": 27912,
    "ĠPL": 49577,
    "Ġod": 27937,
    "ĠSP": 48836,
    "Ġcarbohyd": 32073,
    "VI": 27951,
    "larg": 27954,
    "ieg": 27955,
    "Some": 27956,
    "Ġcondemn": 27960,
    "Jes": 27964,
    "ĠParent": 27976,
    "ae": 46991,
    "Ġbenefic": 27982,
    "Stud": 45578,
    "Jew": 27985,
    "tem": 29255,
    "ĠBay": 30428,
    "Ġyouth": 35189,
    "ĠLevel": 27993,
    "Ġhipp": 27998,
    "80": 43309,
    "ĠWr": 28588,
    "rac": 40876,
    "ĠNap": 28028,
    "ĠPD": 28033,
    "ĠManit": 28038,
    "Ġforward": 43193,
    "ĠWend": 28059,
    "Ġleft": 44969,
    "Ġprophe": 30432,
    "Ġintrins": 48421,
    "aeper": 28078,
    "Ġregister": 28081,
    "ĠChand": 28091,
    "âĺħ": 28098,
    "Ġhelm": 28104,
    "aps": 45648,
    "gi": 28108,
    "ĠConfig": 28118,
    "hard": 28120,
    "sk": 48012,
    "ĠAccording": 28131,
    "Ġaddict": 28134,
    "ĠJagu": 39033,
    "ĠFitz": 44016,
    "ĠProcess": 32638,
    "Ġerect": 28160,
    "ĠAbs": 49019,
    "ĠSure": 28162,
    "ĠThr": 28164,
    "phas": 28177,
    "Ġlith": 28189,
    "Just": 32974,
    "ĠSant": 48812,
    "ĠBu": 45955,
    "Ġweapon": 28224,
    "ĠImport": 28256,
    "Work": 28261,
    "ĠPand": 28263,
    "ĠCH": 48888,
    "Ġling": 28273,
    "aze": 28280,
    "ĠFlore": 28282,
    "âĶĢâĶĢâĶĢâĶĢ": 28287,
    "Ġencl": 49587,
    "Incre": 46635,
    "dem": 41762,
    "Ġmouth": 28297,
    "Ġenhance": 29499,
    "Ġconcert": 38819,
    "ĠAx": 42320,
    "ĠTob": 46420,
    "elect": 30812,
    "arn": 28355,
    "Ġneglig": 42582,
    "Engine": 49526,
    "Ġbree": 28378,
    "ĠWes": 28379,
    "Ġship": 29056,
    "HT": 40462,
    "Ġscroll": 31883,
    "Psy": 28411,
    "âķ": 28415,
    "ĠSchw": 28417,
    "Ġpiss": 28419,
    "Ġmini": 28430,
    "60": 35387,
    "ĠMour": 28434,
    "Stream": 28441,
    "ĠBened": 28442,
    "ĠBol": 38241,
    "Direct": 42800,
    "Author": 28450,
    "ĠNeigh": 28453,
    "pass": 28457,
    "Ġdisproportion": 30727,
    "Ġcommem": 39988,
    "Event": 28469,
    "dam": 28480,
    "Ġintric": 28491,
    "Ã£": 28494,
    "occup": 28501,
    "ĠAnk": 28505,
    "Run": 49238,
    "Ġdebug": 49263,
    "Ġpill": 30230,
    "fashion": 28521,
    "Ġrehe": 28524,
    "Ant": 28540,
    "ĠRC": 28542,
    "Ġstrip": 28551,
    "Adv": 28554,
    "employ": 36011,
    "utter": 33343,
    "Ġhomeless": 28567,
    "ĠTsu": 28580,
    "ĠNEW": 28585,
    "ĠStef": 28587,
    "Ġloose": 28590,
    "Ġinterpre": 35136,
    "Ġbigot": 28594,
    "ave": 43779,
    "pict": 33798,
    "ĠPed": 46521,
    "Ġcyn": 49254,
    "ĠScroll": 28604,
    "Ġarrog": 34778,
    "ĠMa": 37882,
    "Ġ23": 34343,
    "Ġresent": 28633,
    "though": 28640,
    "ĠPsychiat": 28642,
    "chem": 31124,
    "Ġpatri": 41677,
    "Ġcheap": 45603,
    "empt": 28665,
    "ĠCele": 35433,
    "Ġplum": 28685,
    "oft": 28695,
    "()": 39638,
    "MENT": 28702,
    "Ġentit": 28708,
    "mus": 28710,
    "ĠCroat": 48598,
    "ĠSix": 46066,
    "Ġpiv": 30100,
    "ynam": 28740,
    "Ġblat": 39085,
    "ĠAthlet": 32391,
    "ĠHoff": 28755,
    "Never": 28756,
    "Ġspawn": 44377,
    "ĠLux": 28762,
    "50": 35383,
    "Ġcentral": 28769,
    "Ġouts": 44078,
    "ĠHeaven": 28780,
    "Ġpunch": 28789,
    "ĠChap": 32684,
    "max": 46778,
    "vol": 28823,
    "ĠKey": 31718,
    "Ġalter": 38625,
    "47": 38397,
    "ĠBah": 45471,
    "Priv": 48693,
    "ĠGrand": 28818,
    "ĠQuant": 39534,
    "orget": 28830,
    "ERS": 28831,
    "Ġsincere": 28838,
    "Ġeight": 45337,
    "Ġcontradict": 28841,
    "ĠLEG": 28853,
    "Ġtwent": 44216,
    "################": 28858,
    "adjust": 28862,
    "ĠFac": 48684,
    "Ġenz": 28865,
    "itud": 28866,
    "appro": 28882,
    "âĢ¦âĢ¦âĢ¦âĢ¦": 28891,
    "Ġmultip": 48561,
    "ĠComb": 31773,
    "Ġpeas": 28922,
    "Ġincarn": 28930,
    "ject": 35153,
    "Scient": 28938,
    "45": 37475,
    "Ġmask": 28974,
    "ĠOs": 42174,
    "Ġtar": 36172,
    "Ġinadvert": 28988,
    "car": 35429,
    "ĠMom": 44954,
    "ĠAlb": 47740,
    "Ġthat": 29039,
    "Ġecc": 29048,
    "box": 45216,
    "aster": 29055,
    "FF": 45491,
    "law": 29062,
    "77": 47327,
    "Ġconqu": 49722,
    "Ġtranscript": 29096,
    "Ġplot": 29098,
    "alle": 29108,
    "Ġmunicipal": 29109,
    "Ġreson": 41268,
    "ĠguiActive": 29117,
    "ĠBra": 36160,
    "Ġstrange": 29126,
    "cipl": 41041,
    "ĠArmen": 32114,
    "ĠZion": 48139,
    "isco": 40566,
    "ĠRena": 29141,
    "ĠScand": 29155,
    "ĠCaval": 29156,
    "ĠJa": 37773,
    "Ġdetrim": 42704,
    "Ġlands": 29178,
    "Bon": 29180,
    "Ġhypocr": 29187,
    "Inter": 39690,
    "Bre": 40475,
    "Contin": 29198,
    "Jose": 29203,
    "Ġescal": 38047,
    "most": 29216,
    "Ġpolicy": 29229,
    "Ġskin": 29239,
    "Prov": 29240,
    "Ġincrement": 29242,
    "Ġlos": 29247,
    "ets": 34622,
    "ĠSecond": 40621,
    "Ġsmugg": 46483,
    "Ġstock": 49519,
    "ival": 47055,
    "Ġruth": 29286,
    "Ġensu": 29288,
    "Ġknowledge": 29294,
    "apesh": 29299,
    "ĠWOR": 29309,
    "Ġpione": 42930,
    "ĠPast": 38001,
    "ĠReport": 30333,
    "Ġresid": 46930,
    "Ġremed": 29349,
    "ĠPel": 47951,
    "oton": 29358,
    "Ġdry": 29366,
    "fore": 44697,
    "Ġvague": 29372,
    "enc": 43373,
    "Ġ24": 48293,
    "ĠMoroc": 49068,
    "inf": 29384,
    "Ġnewcom": 41167,
    "ĠWrest": 40882,
    "Ġnin": 42808,
    "ĠStock": 29424,
    "ĠLand": 29434,
    "ÃŃ": 40945,
    "Ġlive": 30234,
    "ellect": 29451,
    "Ġcredit": 29459,
    "Ġcease": 29462,
    "ĠFel": 29466,
    "ĠBlock": 29469,
    "mount": 29473,
    "les": 35772,
    "Ġimmense": 29476,
    "Em": 48385,
    "atche": 29481,
    "Ġmyst": 29491,
    "ĠApost": 43076,
    "cut": 29498,
    "ĠPengu": 34169,
    "sing": 29507,
    "ĠKaz": 29511,
    "î": 29518,
    "Sen": 32743,
    "Ġneat": 29521,
    "Ġsandwic": 29522,
    "ĠArchitect": 44355,
    "Ġbalcon": 29525,
    "Ġmisunder": 39398,
    "58": 48375,
    "Mult": 30962,
    "Ġconvenient": 29546,
    "LC": 29559,
    "Ġattribut": 29561,
    "Israel": 29563,
    "ĠMig": 29570,
    "ĠAzerb": 29575,
    "Ġintercept": 29587,
    "Ġoversee": 29597,
    "ĠGing": 29600,
    "Ġnotor": 46028,
    "aku": 29608,
    "ĠDanger": 29637,
    "ies": 29638,
    "Ġdisbel": 29639,
    "ĠProject": 29643,
    "ĠDw": 29647,
    "Ġfiles": 29650,
    "ĠGate": 29661,
    "orks": 29663,
    "Ġbail": 29673,
    "Ġlingu": 29674,
    "Ġreceipt": 29691,
    "Ġunrel": 29699,
    "Ġmedi": 29701,
    "ĠTas": 29703,
    "Ġmanifest": 38283,
    "Dem": 42527,
    "Ġtyr": 44060,
    "ĠView": 29723,
    "ĠMinor": 29725,
    "pur": 29728,
    "Ġnucle": 29729,
    "ĠBow": 46722,
    "Ġsail": 43017,
    "NAS": 29743,
    "Ġchance": 29751,
    "ome": 49529,
    "ĠOpt": 49338,
    "ĠQur": 29763,
    "Ġecosystem": 29765,
    "oult": 29801,
    "Ġtables": 32852,
    "Ġfatal": 29836,
    "Ġesp": 47992,
    "Acc": 29861,
    "ĠGoth": 38590,
    "Ġeager": 29875,
    "ĠWATCH": 29879,
    "ams": 29881,
    "Ġdispar": 37178,
    "ĠSpir": 29886,
    "Ġissu": 29890,
    "Ent": 32143,
    "Ġfantas": 29907,
    "Ġdemol": 33104,
    "rat": 44361,
    "Ġcalm": 29925,
    "Ġamuse": 29929,
    "ĠAntar": 32894,
    "ĠBattle": 29938,
    "Ġevid": 29949,
    "Ġexternal": 29953,
    "Ġunfocused": 29954,
    "ĠguiActiveUn": 29955,
    "ĠexternalTo": 29957,
    "ĠexternalToEVA": 29958,
    "Ġchief": 36050,
    "Ġcorro": 29965,
    "Person": 42067,
    "Ġneurolog": 29977,
    "ĠClint": 29979,
    "raft": 29980,
    "Ġautop": 29986,
    "Ġexempt": 48266,
    "ĠRoy": 49727,
    "Ġvigil": 49071,
    "Ġimpe": 45452,
    "Ġaug": 34761,
    "Ġunint": 30184,
    "Ġlie": 32012,
    "pub": 30016,
    "organ": 44910,
    "cor": 46005,
    "Ġparan": 47270,
    "of": 39287,
    "ĠHealth": 30585,
    "iol": 30037,
    "MS": 30040,
    "Ġsupplement": 43616,
    "ocy": 43065,
    "ĠGujar": 30056,
    "erman": 30057,
    "Ġreun": 35185,
    "ĠðŁ": 49914,
    "ech": 30073,
    "TA": 37893,
    "Ġundermin": 36746,
    "enh": 30092,
    "ĠRecomm": 30862,
    "Jon": 30110,
    "Ġhate": 30112,
    "ĠMurd": 30115,
    "Ġthigh": 30134,
    "ĠRa": 34868,
    "ts": 34038,
    "ĠMort": 45191,
    "Ġmortg": 30146,
    "ĠDestroy": 30159,
    "Ġdash": 30160,
    "Ġmillenn": 46196,
    "CT": 30173,
    "Ġster": 46244,
    "rock": 30176,
    "ĠProdu": 30181,
    "ĠAnaly": 44345,
    "Ġinval": 30183,
    "Ġprolet": 47138,
    "ield": 30194,
    "Ġlifes": 30203,
    "Mc": 30209,
    "Ġbag": 30211,
    "ĠSorce": 40417,
    "agn": 30220,
    "Ġabol": 35276,
    "Ġdisturb": 38367,
    "Ġrefriger": 30245,
    "Ġcommercial": 30248,
    "Ġtag": 49365,
    "ĠShield": 30257,
    "Short": 30258,
    "Ġforc": 30267,
    "Ġthy": 30268,
    "DE": 45907,
    "âĢĶâĢĶâĢĶâĢĶâĢĶâĢĶâĢĶâĢĶ": 30287,
    "Are": 30292,
    "Ġdisse": 44577,
    "Ġdish": 31790,
    "ĠBullet": 30296,
    "ĠRam": 37349,
    "onom": 39781,
    "Ã¶": 48608,
    "Ġsanction": 30317,
    "ĠHand": 49245,
    "ĠBenef": 37810,
    "ĠBy": 47588,
    "ĠRut": 30340,
    "ĠStaff": 30341,
    "fram": 37550,
    "Ġsurpass": 30357,
    "ĠFANT": 30371,
    "ĠBever": 30378,
    "Clear": 30383,
    "ĠProceed": 30386,
    "Ã±": 31074,
    "Cent": 30390,
    "Book": 30395,
    "ĠFly": 30397,
    "ĠYug": 30400,
    "ĠSpell": 30401,
    "ano": 41910,
    "Ġpier": 40904,
    "Ġscore": 49943,
    "Ġmaster": 44861,
    "Fl": 46995,
    "ĠOpen": 30417,
    "Ġtelev": 30426,
    "ĠOrd": 30434,
    "yd": 43700,
    "Option": 30464,
    "Ġprow": 30466,
    "Ġplain": 30468,
    "Ġ30": 40031,
    "OP": 43090,
    "Ġresil": 31052,
    "Ġmund": 30486,
    "Ġunfair": 30495,
    "Ġpars": 44012,
    "stro": 30502,
    "olith": 30509,
    "ĠBec": 30859,
    "Ġtodd": 49887,
    "Tem": 42237,
    "Ġmuse": 30539,
    "Ġredund": 48797,
    "mem": 31418,
    "umer": 38968,
    "Ġcoff": 47040,
    "Ġsecure": 30580,
    "ĠRapt": 30581,
    "Install": 30583,
    "Ġpund": 30600,
    "Ġdrown": 31994,
    "ĠAW": 30610,
    "ĠUg": 30617,
    "Ġvom": 44287,
    "ĠTher": 41335,
    "Ġblue": 30626,
    "Ġallev": 30630,
    "Ġnostalg": 40204,
    "Ġcaval": 30636,
    "ĠBlood": 30638,
    "report": 49659,
    "embed": 30643,
    "clone": 30644,
    "rawdownload": 30651,
    "ĠEston": 30657,
    "ĠIb": 30662,
    "ĠHog": 30667,
    "67": 45995,
    "Ġsafegu": 32418,
    "sl": 48114,
    "ĠGrad": 30675,
    "light": 43096,
    "atal": 30696,
    "Ġfault": 30770,
    "ĠFather": 30714,
    "Ġarchae": 38712,
    "ĠPress": 30725,
    "Ġdiamond": 30729,
    "Ġimperial": 39806,
    "mal": 30745,
    "ĠIv": 37244,
    "just": 30757,
    "Ġvul": 30761,
    "Ġtsun": 30764,
    "Ġbast": 30775,
    "Space": 30777,
    "OUR": 30778,
    "ĠBrun": 31956,
    "55": 47841,
    "olk": 30797,
    "ĠCambod": 30802,
    "Ġliquid": 30806,
    "ĠFernand": 30808,
    "ĠCatal": 33604,
    "Resp": 30822,
    "Ġelectrom": 30839,
    "Ġamid": 30840,
    "ĠAna": 30845,
    "Ġfluct": 30846,
    "Ġnood": 30848,
    "ĠGri": 30851,
    "SS": 30872,
    "indust": 30875,
    "Flor": 30880,
    "Ġspoil": 30881,
    "Ġslog": 30884,
    "Vis": 36004,
    "rol": 42384,
    "Ġintense": 30891,
    "Ġflour": 45985,
    "ĠSle": 30893,
    "ĠNi": 47676,
    "Ġprocure": 30901,
    "Ġ//": 33758,
    "ĠMust": 30908,
    "ĠTry": 30910,
    "UG": 43749,
    "PR": 48041,
    "Ġsuperf": 48458,
    "ote": 32214,
    "ĸ": 30949,
    "Med": 38857,
    "Ġpsychiat": 48963,
    "Quant": 30953,
    "Ġarom": 48185,
    "ĠThank": 30996,
    "ulk": 31008,
    "wik": 31011,
    "develop": 32827,
    "Jack": 31015,
    "Oh": 31019,
    "ĠKath": 48419,
    "ĠDid": 31024,
    "ĠLith": 48778,
    "ynchron": 31046,
    "Ġexpans": 36128,
    "ĠRiver": 31070,
    "ĠUnd": 31071,
    "ĠFIR": 31073,
    "Ġcyber": 31080,
    "Ġinvari": 31083,
    "ĠSask": 31091,
    "Ġdiscontin": 31094,
    "ĠMotor": 31096,
    "government": 31098,
    "ĠNik": 47872,
    "Tor": 39031,
    "Ġunreal": 31108,
    "ĠKr": 31117,
    "hell": 31118,
    "Ġmap": 31122,
    "_-": 31131,
    "Ġjihad": 32129,
    "cler": 31144,
    "ĠDR": 31145,
    "Ġoutwe": 31150,
    "mat": 44680,
    "kef": 31169,
    "TP": 31180,
    "ĠPione": 31182,
    "IP": 31189,
    "ĠShi": 31190,
    "cond": 31193,
    "ĠDi": 39314,
    "Ġost": 31199,
    "Ġms": 31201,
    "Ġplun": 32414,
    "Ġseaf": 31218,
    "PL": 48839,
    "Ġcla": 31230,
    "WAR": 37516,
    "49": 42879,
    "Ġvoy": 31250,
    "Ġvolcan": 32155,
    "ĠMunicip": 31271,
    "ĠCinem": 31280,
    "display": 31281,
    "action": 31283,
    "onna": 31284,
    "CH": 49829,
    "Ġintoler": 49214,
    "ĠSnap": 39253,
    "ĠMah": 37125,
    "ĠWinds": 31306,
    "Ġpant": 31316,
    "Action": 31318,
    "external": 31321,
    "rupt": 31335,
    "neg": 32105,
    "ĠEthiop": 47434,
    "ĠTV": 31341,
    "Ġsubstit": 31346,
    "Ġdoubt": 48407,
    "ĠCare": 32364,
    "ĠHyd": 31861,
    "geon": 31359,
    "ĠJama": 31365,
    "Ġinsurg": 45807,
    "doc": 31373,
    "Tur": 42617,
    "Ġcav": 31388,
    "ĠHim": 31402,
    "ä¸": 48756,
    "ĠHu": 42953,
    "?????-": 31411,
    "ĠRick": 31413,
    "Ġmarginal": 31415,
    "class": 49166,
    "ĠThat": 31451,
    "Vol": 31460,
    "ĠDesign": 49027,
    "Ġpave": 31471,
    "âķĲ": 31477,
    "Ġhospital": 33107,
    "dyl": 31484,
    "ĠCivil": 31500,
    "Mp": 31510,
    "ĠSong": 31517,
    "asion": 31520,
    "olly": 31522,
    "Ġprogress": 37080,
    "Ġwreck": 44515,
    "ĠSport": 31535,
    "Ġindo": 40946,
    "TER": 31545,
    "ĠRabb": 31552,
    "Ġinconven": 37258,
    "Ġimplicit": 31566,
    "Cour": 31570,
    "Ġinex": 32944,
    "urg": 44843,
    "Ġfract": 49621,
    "Cho": 31596,
    "err": 31604,
    "ĠFull": 31608,
    "ĠLuxem": 31609,
    "ĠHoo": 31610,
    "ĠEven": 31612,
    "ĠCob": 44050,
    "ĠTibet": 31622,
    "Ġsummar": 45890,
    "steam": 31626,
    "ĠFrequ": 31647,
    "ĠEther": 31648,
    "EE": 34983,
    "ĠPuzz": 31658,
    "eren": 31660,
    "ĠRaf": 31663,
    "bec": 31672,
    "Ġfren": 31679,
    "ĠMcK": 48148,
    "ĠLun": 31692,
    "Mon": 40617,
    "Ġscholar": 31695,
    "rap": 48511,
    "cffff": 31702,
    "Ġcam": 40766,
    "ĠBL": 44933,
    "Ġcompuls": 31712,
    "Ġpodcast": 31714,
    "bn": 31716,
    "Ġsabot": 31728,
    "Ġlod": 42651,
    "Ġcoerc": 46981,
    "Ġtheat": 31755,
    "ĠCos": 45906,
    "Ġforget": 31757,
    "Ġfinal": 43481,
    "ĠGOOD": 31766,
    "Ġprecip": 31770,
    "Ġintest": 45171,
    "ĠLore": 31780,
    "Ġchat": 31791,
    "Ġ\"$": 31792,
    "Connect": 34270,
    "abb": 48655,
    "Creat": 31816,
    "Ġsweet": 31818,
    "Ġforfe": 46293,
    "Ġinsign": 31826,
    "ĠPOL": 31827,
    "ĠBB": 31828,
    "amin": 31831,
    "Ġ26": 46942,
    "Rub": 31846,
    "Dri": 31848,
    "AF": 31851,
    "ĠClay": 31853,
    "ĠTown": 46556,
    "Lou": 31862,
    "Ġnause": 31867,
    "rid": 44170,
    "ĠRail": 36034,
    "Ġyog": 31877,
    "ĠMood": 31881,
    "Ġcomplement": 31895,
    "Ġartic": 36622,
    "Ġpray": 31913,
    "ĠBreak": 31920,
    "Oper": 31925,
    "ĠGuatem": 31928,
    "ĠHead": 31938,
    "Ġfrown": 31943,
    "ĠLevi": 31968,
    "ĠHaz": 42550,
    "ĠOption": 31978,
    "ĠCec": 31979,
    "rev": 31988,
    "ĠFed": 44957,
    "Ġdefense": 31991,
    "ĠConc": 38965,
    "ĠCit": 32011,
    "ogene": 37222,
    "inflamm": 32017,
    "Ġenvision": 32040,
    "Ġrevis": 32047,
    "ighth": 32048,
    "Ġ40": 48653,
    "Ġintellectual": 32067,
    "Ġrestruct": 32069,
    "Ġring": 32078,
    "Ġscarce": 32080,
    "ĠURL": 32081,
    "ĠCPU": 32085,
    "cd": 32086,
    "ĠBart": 32087,
    "Ġdecided": 32088,
    "Ġseam": 33426,
    "Ġorb": 40207,
    "Hop": 32110,
    "ĠID": 33242,
    "Gold": 41947,
    "ĠHP": 32140,
    "Ġfulfill": 32147,
    "Ġstabil": 44690,
    "Ġintens": 47442,
    "ĠSmart": 32182,
    "Ġdoor": 41339,
    "Ġartific": 32200,
    "Ġted": 32205,
    "Que": 34736,
    "ĠGund": 32212,
    "Lab": 32220,
    "Hen": 32221,
    "Ġbread": 32228,
    "Ġcapac": 42957,
    "Ġheavy": 32234,
    "Ġmigr": 45624,
    "Ġexhaust": 39408,
    "ĠCu": 32241,
    "Ġwarr": 32247,
    "Ġsalv": 32249,
    "ĠNGO": 32252,
    "\":[": 32254,
    "oj": 32256,
    "Ġamazing": 32258,
    "ĠGPU": 32261,
    "Lay": 32262,
    "ĠTam": 49815,
    "Ġimpart": 32266,
    "ĠHamb": 32271,
    "cig": 45785,
    "Ġcompassion": 32278,
    "Ġconfidential": 32299,
    "Ġspan": 32302,
    "Ġfine": 32311,
    "Pal": 32315,
    "ĠZucker": 32329,
    "ĠInstall": 32333,
    "yout": 32339,
    "Ġhyper": 32353,
    "Ġcommence": 32354,
    "Ġbreast": 32358,
    "Ġscientific": 32372,
    "Ġmant": 32373,
    "Ġiv": 32375,
    "aunt": 39440,
    "48": 40016,
    "ĠCous": 32389,
    "Ġdoctr": 32390,
    "elve": 32412,
    "ĠKa": 36850,
    "ĠFu": 43439,
    "ĠOpportun": 32420,
    "ĠDru": 32430,
    "arc": 32434,
    "Ġabdom": 32701,
    "ĠTa": 32438,
    "Anth": 32442,
    "Ġguitar": 32450,
    "Pat": 47291,
    "aint": 32470,
    "Text": 42215,
    "Ġstrongh": 32498,
    "ĠManufact": 39963,
    "Ġwise": 32518,
    "ĠMcG": 45221,
    "produ": 36611,
    "Ġcleans": 32529,
    "irl": 32530,
    "Ġstring": 32536,
    "sub": 45747,
    "ĠDaw": 38667,
    "ĠCas": 43253,
    "aund": 32563,
    "Ġgroup": 35860,
    "ĠGh": 32570,
    "again": 32571,
    "Ï": 49280,
    "ĠMaur": 45851,
    "Ġradical": 32587,
    "Ġreper": 40841,
    "ochem": 36819,
    "Ġultr": 32611,
    "ĠIsland": 32613,
    "Ġmitochond": 32618,
    "Build": 32620,
    "ĠOri": 39458,
    "Ġhair": 43618,
    "BL": 32681,
    "ĠCEO": 32683,
    "ĠWars": 32700,
    "apt": 44752,
    "Ġlandsc": 32709,
    "WH": 47102,
    "review": 32719,
    "Ġpriorit": 32725,
    "ĠHond": 32727,
    "ĠVolks": 32736,
    "Str": 32749,
    "Mex": 32751,
    "Ġphysic": 37643,
    "Ġ28": 41777,
    "ĠMcL": 32762,
    "hov": 32768,
    "Ġ100": 32773,
    "News": 32776,
    "Ġrede": 41758,
    "Ġfoll": 32785,
    "Ġrabb": 47071,
    "emon": 49761,
    "aged": 32799,
    "ĠThough": 32803,
    "Ġpriest": 32805,
    "Ġfamiliar": 32810,
    "Ġcu": 32817,
    "Tra": 32819,
    "Ġsadd": 40179,
    "ĠSUP": 43078,
    "Ġmultipl": 48218,
    "Interest": 48605,
    "ĠCros": 32843,
    "activ": 48290,
    "Ġliberal": 32853,
    "Ġprag": 32864,
    "ĠActiv": 40468,
    "Ġtrail": 32867,
    "Del": 32874,
    "Ġgast": 32876,
    "Ġtheor": 46155,
    "EG": 43057,
    "``": 32898,
    "Ġlinem": 41428,
    "cknow": 32910,
    "Ġmistaken": 32913,
    "Ġhem": 32914,
    "Ġpor": 32924,
    "ĠTerror": 32929,
    "ces": 32932,
    "ĠBright": 32938,
    "ĠSym": 49304,
    "ĠDwar": 32941,
    "WIND": 32952,
    "Ġmurder": 33827,
    "Id": 32979,
    "Ang": 45330,
    "Ġcel": 33003,
    "ĠDal": 40925,
    "Ġsubpoen": 33007,
    "ĠDoc": 33012,
    "Ġfierce": 33030,
    "ĠTHE": 47023,
    "Ġroomm": 33050,
    "Ġformat": 33058,
    "ĠGood": 46398,
    "ĠPun": 33073,
    "Ġconvey": 33093,
    "Ġdefensive": 33097,
    "quer": 35864,
    "erent": 33114,
    "Ġmosqu": 35191,
    "Ġampl": 49995,
    "Ġda": 33131,
    "Ġmatt": 33133,
    "hett": 35364,
    "vere": 37458,
    "ĠVul": 33147,
    "test": 33152,
    "Ġsed": 38733,
    "oms": 36838,
    "Ġbog": 33163,
    "Ġbapt": 40102,
    "assad": 33174,
    "Bern": 33178,
    "ĸļ": 33179,
    "ĠMID": 33184,
    "Ġimpat": 33185,
    "ĠWor": 49820,
    "ĠTalk": 33190,
    "Ġanat": 48376,
    "é¾įå": 39565,
    "Ġundis": 33202,
    "Ġfare": 33203,
    "represent": 33214,
    "ĠIng": 33219,
    "ĠAB": 49738,
    "Ġdracon": 33228,
    "SI": 33234,
    "ĠSE": 40812,
    "ĠMost": 33240,
    "Ġcit": 35150,
    "Ġsucc": 46008,
    "ĠBirth": 33256,
    "Ġdrive": 33260,
    "Invest": 33273,
    "ĠTE": 33281,
    "Ġcompos": 33288,
    "Ġmild": 33289,
    "Ġmedd": 33290,
    "Part": 34108,
    "fle": 33304,
    "ĠLy": 46146,
    "Ġbow": 35456,
    "view": 33316,
    "vet": 33318,
    "Ġcush": 33324,
    "ĠHolland": 33335,
    "ĠNE": 36210,
    "Ġadmitted": 33348,
    "ĠAzerbai": 33350,
    "Ġcombust": 33352,
    "Ġfabric": 38621,
    "Fore": 34350,
    "Ġhover": 33372,
    "Read": 35865,
    "Ġhonor": 44103,
    "ĠBub": 33436,
    "sett": 33437,
    "Ġmust": 49048,
    "Ġmore": 33440,
    "Ġcopyright": 33441,
    "ĠLED": 33442,
    "Ġfeder": 33455,
    "adi": 48432,
    ">>>>": 33462,
    "Ġtorn": 33463,
    "ĠRevel": 48589,
    "Ġburgl": 33469,
    "ĠSai": 33470,
    "ĠPos": 33478,
    "ĠHind": 43188,
    "ular": 33482,
    "Ġrighteous": 33483,
    "ĠGre": 33487,
    "ĠCrus": 44456,
    "ĠSina": 33490,
    "ĠImprove": 44842,
    "ara": 33511,
    "ĠCook": 45050,
    "Mal": 33521,
    "access": 33525,
    "udic": 33529,
    "ormon": 33537,
    "Foot": 37061,
    "Import": 33541,
    "Ġ27": 39513,
    "plug": 37135,
    "68": 48309,
    "=~": 33558,
    "ĠLiter": 48159,
    "Ġincompet": 39419,
    "ĠEarth": 33587,
    "ĠER": 33599,
    "Ġaqu": 36860,
    "ĠPower": 46053,
    "Writ": 34124,
    "ĠLatin": 33622,
    "Ġrooft": 33625,
    "VP": 33628,
    "turn": 33631,
    "ĠShin": 47726,
    "ĠMOD": 33638,
    "ĠVan": 46329,
    "ĠFar": 38790,
    "ĠES": 33655,
    "Count": 33666,
    "Ġpostp": 47073,
    "Ġunequ": 37079,
    "Ġmile": 33680,
    "ĠSpirit": 33689,
    "Ġwield": 42204,
    "×Ļ": 33696,
    "ĠRat": 36571,
    "ĠTunis": 33717,
    "ĠMcM": 42029,
    "ĠAlm": 33732,
    "Ġcourage": 33755,
    "Ġconfisc": 33757,
    "Ġuncon": 33759,
    "ĠRohing": 33761,
    "ĠOrche": 33762,
    "ĠDim": 41010,
    "Ġaction": 33772,
    "ĠShap": 33779,
    "Ġsket": 33780,
    "ĠEss": 36039,
    "isk": 33786,
    "Ġreperc": 33801,
    "Ġflag": 33805,
    "Ġmakes": 33809,
    "ĠArist": 33812,
    "ĠFund": 49728,
    "Ġlip": 41174,
    "Ġshame": 33823,
    "Ġadverse": 33824,
    "itiz": 36703,
    "Ġharvest": 34007,
    "ãĤ¦": 33848,
    "Bott": 33849,
    "Ġcaution": 33850,
    "Ġbind": 37099,
    "Ġhit": 33858,
    "Ġadvers": 42373,
    "ĠVoy": 33869,
    "Ġsubt": 44089,
    "Ġdilig": 47079,
    "Ġpatrol": 33886,
    "Set": 40531,
    "Ġnu": 46873,
    "pie": 33899,
    "Lic": 33901,
    "Beh": 33908,
    "ĠFuk": 33915,
    "ĠHonest": 33918,
    "ĠLI": 33923,
    "ĠTrou": 33924,
    "Ġrecount": 39596,
    "Ġspo": 41823,
    "ĠShot": 33943,
    "#$": 33951,
    "Ġseparat": 40425,
    "000": 33960,
    "uber": 33982,
    "ĠLock": 33983,
    "ĠLow": 47402,
    "Ġimproper": 33995,
    "Disc": 48618,
    "ĠFix": 34003,
    "Ġaven": 34010,
    "ĠCou": 34013,
    "Ġdrum": 34014,
    "ĠBrow": 44520,
    "Ġhurd": 36378,
    "ĠRecre": 34030,
    "ĠBos": 34037,
    "Ġmanif": 47793,
    "ĠWolver": 34052,
    "ĠTrend": 34053,
    "ĠRu": 45830,
    "Ġposter": 34064,
    "ĠCunning": 34070,
    "interest": 47659,
    "ĠHub": 40200,
    "ĠRoman": 34089,
    "Ġchromos": 42487,
    "Ġscram": 36500,
    "Ġcra": 40550,
    "ĠHero": 34109,
    "ĠTemp": 34112,
    "ĠUnic": 39226,
    "Ġegreg": 34117,
    "ĠOsw": 34119,
    "ĠGuant": 34123,
    "ĠPyr": 34131,
    "comp": 45876,
    "Ġsocio": 34151,
    "ĠPaul": 35770,
    "ĠPrior": 34161,
    "ĠCompar": 34165,
    "ĠHal": 34183,
    "ĠTop": 47118,
    "advert": 34187,
    "ĠPupp": 34192,
    "ĠItem": 34193,
    "Ġdiscrep": 42165,
    "ãĥĺ": 34218,
    "ĠKazakh": 34219,
    "aza": 34230,
    "ĠDeg": 34231,
    "Ġpsychedel": 34235,
    "Ġdigit": 34236,
    "ĠTel": 34240,
    "Ġunfold": 34405,
    "ĠMob": 45696,
    "Ġla": 34260,
    "Ġtotal": 39143,
    "ĠSpart": 44875,
    "Ġgru": 34302,
    "ĠKel": 46322,
    "Ġbourgeois": 34307,
    "IB": 34308,
    "ĠPrest": 34309,
    "ĠLoc": 41022,
    "rup": 46017,
    "\\\\\\\\\\\\\\\\": 34349,
    "Ġabnormal": 34360,
    "Ġdigest": 44384,
    "Ġsubord": 45251,
    "der": 34376,
    "onel": 34379,
    "!!!!": 34380,
    "Ġune": 41307,
    "Ġabst": 40428,
    "Sur": 34397,
    "Ġanalog": 34402,
    "crit": 34411,
    "ĠYes": 34413,
    "Ġfuzz": 34414,
    "Ġabduct": 34427,
    "Ġscratch": 34433,
    "Ġmission": 37203,
    "ĠWhit": 47703,
    "ĠErn": 37874,
    "Ġcove": 34452,
    "ĠDial": 34454,
    "Ġner": 46833,
    "rehens": 36066,
    "enth": 34473,
    "oly": 34487,
    "odynam": 43869,
    "direct": 34993,
    "ĠWAR": 42405,
    "ĠBlaz": 34511,
    "ĠTan": 47570,
    "Ġbowl": 34541,
    "Ġhydra": 34542,
    "Ġasc": 48563,
    "Ġstem": 44742,
    "esthes": 34556,
    "ĠSurve": 34563,
    "Redd": 34577,
    "ĠSchwar": 34580,
    "Ġomin": 34582,
    "ĠRebell": 34593,
    "Ġice": 34594,
    "Ġdivers": 34596,
    "ĠMain": 34602,
    "Ġmarry": 34607,
    "desc": 34614,
    "IGH": 34619,
    "Ġwhistlebl": 45892,
    "arre": 47514,
    "ĠMD": 34628,
    "ĠIndividual": 34629,
    "aph": 34634,
    "iling": 34645,
    "ays": 34652,
    "Ġextrad": 34653,
    "Ġmemor": 34656,
    "Ġ??": 34658,
    "ĠFree": 35586,
    "ĠProm": 45710,
    "Ġforesee": 34667,
    "ĠSin": 34672,
    "key": 42919,
    "All": 48365,
    "Ġfisher": 48495,
    "ĠDIS": 34702,
    "ĠEval": 34704,
    "Ġenlight": 35702,
    "iph": 49660,
    "ĠFarm": 39576,
    "Ġpenn": 34734,
    "Ġcoup": 45717,
    "Ġunderest": 35935,
    "Ġcharism": 45326,
    "ĠProced": 43443,
    "Ġprud": 34743,
    "ĠOil": 34749,
    "camp": 43587,
    "Ġimpover": 34759,
    "ĠEisen": 34760,
    "Ġvide": 36087,
    "Ġscra": 44241,
    "FORM": 34781,
    "ĠCooper": 43202,
    "¶": 41423,
    "ref": 34796,
    "ĠShel": 46599,
    "Ġmans": 34828,
    "ĠHarm": 39457,
    "Ġglad": 34837,
    "Ġtransm": 34844,
    "Marc": 34855,
    "Ġbutter": 44316,
    "Fe": 38561,
    "Ġfer": 44288,
    "Ġcess": 34865,
    "59": 48796,
    "Ġhypothes": 43459,
    "Ġjack": 34874,
    "ĠShut": 40156,
    "Â·": 34892,
    "Ġwater": 47263,
    "ĠJu": 47858,
    "Ġillum": 46462,
    "Ġirrit": 41755,
    "ĠWitness": 34910,
    "Prim": 34915,
    "son": 34947,
    "ĠMalt": 34951,
    "Ġnavig": 34955,
    "Pass": 34960,
    "blog": 48841,
    "ĠUN": 49422,
    "ĠAV": 34969,
    "Ġpert": 35013,
    "Ġunman": 35017,
    "Ġgad": 42637,
    "âĺ": 35028,
    "ĠTW": 35033,
    "ĠFilip": 35034,
    "Ġunaff": 35035,
    "icy": 35043,
    "ĠâĶľ": 35051,
    "spl": 35057,
    "è£": 35063,
    "ĠMut": 48552,
    "hig": 46248,
    "Ġepile": 35070,
    "pan": 35588,
    "ĠSoph": 39698,
    "ĠCrow": 35077,
    "ĠShoot": 35079,
    "Ġupt": 46092,
    "Ġintox": 44369,
    "ĠIde": 39812,
    "Ġerrone": 35111,
    "ĠSens": 35112,
    "kay": 35117,
    "Ġwart": 35127,
    "ĠBank": 35130,
    "mp": 35131,
    "Ġjealous": 35139,
    "ĠChev": 49828,
    "IZ": 35145,
    "Review": 40011,
    "ores": 35159,
    "contin": 42788,
    "Ġirrig": 35170,
    "ĠInteg": 39093,
    "Expl": 35178,
    "Fram": 41771,
    "ĠMagn": 47764,
    "Impro": 47276,
    "ATT": 35200,
    "Ġfashion": 38123,
    "you": 35210,
    "Ġamen": 35213,
    "ĠPle": 35214,
    "Ġdread": 38974,
    "bas": 35232,
    "can": 49628,
    "Ġgeop": 35238,
    "ĠGem": 35240,
    "ÃĥÃĤÃĥÃĤÃĥÃĤÃĥÃĤÃĥÃĤÃĥÃĤÃĥÃĤÃĥÃĤÃĥÃĤÃĥÃĤÃĥÃĤÃĥÃĤÃĥÃĤÃĥÃĤÃĥÃĤÃĥÃĤ": 35241,
    "ĠVID": 35252,
    "ĠSem": 40308,
    "ĠOld": 35272,
    "Ġexponent": 35274,
    "ĠFo": 35280,
    "ĠReb": 49949,
    "Ġ;": 36537,
    "ĠDoct": 35286,
    "Ġacquaint": 45062,
    "Return": 35306,
    "çĶ": 37700,
    "Ġmosquit": 35318,
    "rote": 35319,
    "Ġreaction": 35323,
    "ĠMech": 35324,
    "ĠAccount": 40709,
    "Ġward": 35338,
    "ĠRivers": 35342,
    "LO": 35358,
    "Ġled": 36953,
    "Jere": 35368,
    "ĠHuman": 35374,
    "trans": 41264,
    "Ġpneum": 35392,
    "Ġmalf": 35399,
    "Ġ----": 39848,
    "Ġturb": 47486,
    "lad": 35413,
    "Ġindisp": 35414,
    "Ġdiver": 43111,
    "Ġsubscript": 35420,
    "dest": 41404,
    "ĠBernard": 35425,
    "ĠVent": 42949,
    "Ġweb": 49568,
    "Ġforce": 42007,
    "ãĥĥ": 45180,
    "ĠSunder": 35451,
    "Ġpic": 35460,
    "ĠSapp": 35463,
    "Ġlooph": 38923,
    "Ġjour": 35469,
    "ĠSid": 35472,
    "Ġspray": 39915,
    "urn": 44611,
    "ĠVari": 37960,
    "ĠHiro": 35508,
    "Ġtroubles": 35523,
    "QU": 35525,
    "Ġcorp": 35534,
    "Ġlicense": 35541,
    "ĠNews": 39339,
    "ĠSuz": 35552,
    "ĠCarb": 35563,
    "Ġknock": 35570,
    "ĠObject": 36837,
    "ĠNord": 35579,
    "major": 35584,
    "69": 49286,
    "gen": 38261,
    "ĠBuild": 49053,
    "ĠKN": 35621,
    "Ġtough": 35624,
    "ĠSCH": 35628,
    "ald": 41221,
    "Ġbrig": 35634,
    "Ġanomal": 35652,
    "ĠALS": 35657,
    "omed": 35659,
    "Ġempower": 39054,
    "ĠBox": 35666,
    "ĠPars": 35670,
    "tra": 43940,
    "ĠFah": 35680,
    "ĠDVD": 35707,
    "ĠOvers": 35713,
    "Palest": 35714,
    "ì": 35720,
    "Ã¨": 35724,
    "Ġrect": 36699,
    "bel": 35738,
    "Ġdos": 35742,
    "ĠIllust": 35745,
    "Certain": 35746,
    "ĠMaver": 35747,
    "Marg": 35748,
    "Ġdiarr": 35749,
    "Ġadam": 35754,
    "Ġcerv": 35757,
    "ĠPercent": 35758,
    "ĠKim": 46297,
    "ĠSwan": 35764,
    "ĠTol": 35771,
    "Mag": 41283,
    "Ġdesert": 45033,
    "ĠAF": 43572,
    "ilt": 35800,
    "Ġchim": 35809,
    "Ġcouncill": 43066,
    "Ġpilgr": 42153,
    "SE": 46632,
    "ĠQuarter": 35827,
    "ĠDu": 49566,
    "Ġram": 35838,
    "ĠPom": 35848,
    "Ġlur": 35850,
    "Ġmisogyn": 35853,
    "ĠWatch": 35855,
    "Ġgriev": 47390,
    "ĠPsy": 35875,
    "press": 35896,
    "marg": 35898,
    "ĠAugust": 48084,
    "cp": 35911,
    "Recomm": 40993,
    "ĠRandom": 35918,
    "ĠRandomRedditor": 35919,
    "Ġparaly": 35920,
    "ĠNO": 35929,
    "Ġnone": 35941,
    "Ġson": 35965,
    "ĠSY": 35975,
    "NE": 35976,
    "ga": 35977,
    "former": 35979,
    "irm": 35986,
    "Ġsight": 41855,
    "Ġsung": 35996,
    "ETH": 35997,
    "ton": 36002,
    "Dep": 48536,
    "Ġunrest": 36008,
    "Ġgrin": 45447,
    "bed": 36014,
    "ĠSW": 36017,
    "iest": 36028,
    "ĠEC": 36030,
    "ĠFell": 36038,
    "ĠKy": 36043,
    "Param": 48689,
    "ĠRonald": 36054,
    "åŃ": 36055,
    "ĠDisney": 36057,
    "See": 36059,
    "Ġber": 44760,
    "Ġplur": 36070,
    "Ġunden": 47334,
    "Ġ[*": 36083,
    "Ġlandsl": 36093,
    "conf": 39490,
    "ĠMaced": 36098,
    "ĠControl": 36102,
    "ĠBuch": 36103,
    "Ġrobot": 36104,
    "ĠTut": 36106,
    "Ġmonument": 36109,
    "Ġembark": 36130,
    "ĠPE": 36133,
    "Ġreleg": 47397,
    "Ġmicrosc": 41603,
    "ONS": 36151,
    "iann": 36153,
    "Ġrepay": 36156,
    "Ġhind": 48931,
    "ĠPist": 36174,
    "ĠUrug": 36166,
    "Ġmanage": 36171,
    "ĠNiger": 36175,
    "Ġstrike": 36176,
    "whel": 36178,
    "sim": 38355,
    "ĠTuls": 36188,
    "65": 46180,
    "Ġreass": 47916,
    "Muslim": 36197,
    "imp": 47985,
    "Ġindisc": 36204,
    "wr": 36205,
    "Ġrally": 36212,
    "Ġå": 36214,
    "ĠChrys": 36222,
    "ĠMush": 36227,
    "Ġcounterfe": 36242,
    "ĠAlger": 36243,
    "Ġenrich": 36258,
    "Ġaddition": 36272,
    "ĠGaw": 36273,
    "Ġcave": 46900,
    "Ġcalib": 36282,
    "Ġsar": 36288,
    "ĠNeed": 38859,
    "ĠFig": 36319,
    "Ġmanuscript": 36323,
    "ĠCrypt": 36324,
    "redd": 36326,
    "CR": 36329,
    "sign": 36336,
    "»": 36341,
    "det": 48915,
    "hh": 48871,
    "ĠPic": 36359,
    "Ġlocal": 42587,
    "Crit": 40745,
    "fect": 36382,
    "Ġparas": 48983,
    "Ġgrap": 42208,
    "Ġallerg": 36410,
    "Ġobsess": 36426,
    "iers": 36434,
    "Ġhorse": 36441,
    "æĪ": 36449,
    "Friend": 36450,
    "cro": 36459,
    "ĠPump": 36469,
    "Sad": 36470,
    "ĠAware": 36480,
    "$$": 36482,
    "ons": 46308,
    "local": 36495,
    "ĠCed": 36503,
    "Ġgrapp": 41891,
    "ĠLast": 36523,
    "ĠKend": 38388,
    "ĠWater": 41873,
    "Prem": 36532,
    "ĠTelesc": 36534,
    "ĠTuc": 36550,
    "efe": 36552,
    "ĠSpecial": 36561,
    "ary": 43643,
    "ĠCoord": 36576,
    "ĠSlov": 36584,
    "Ġmarked": 36586,
    "Ġadventure": 40739,
    "ĠSupport": 43933,
    "ĠClaim": 36625,
    "STD": 36631,
    "Ġarous": 38577,
    "ered": 36642,
    "Ġrefund": 36648,
    "imm": 47365,
    "%%": 36662,
    "ĠBows": 36670,
    "ĠBark": 45153,
    "Ġdst": 36680,
    "ĠRy": 44787,
    "Ġsq": 36683,
    "Ġindul": 36686,
    "process": 41086,
    "ĠAlv": 36697,
    "girl": 36705,
    "Charg": 36715,
    "Ġdust": 36717,
    "Ġstraw": 40981,
    "ĠDebor": 36721,
    "respect": 36735,
    "Ġpatriot": 36739,
    "ĠJos": 36742,
    "ĠEz": 45620,
    "rad": 42070,
    "Ġtransition": 48982,
    "ĠBucc": 36751,
    "ĠPin": 36755,
    "ĠWolf": 48311,
    "ĠPath": 36770,
    "Ġreimburse": 36775,
    "Bat": 36784,
    "Ġprovision": 36787,
    "ĠDeath": 36789,
    "ĠOm": 43996,
    "Ġdiagram": 36812,
    "ĠASC": 36846,
    "Ev": 46530,
    "Ġfertil": 36858,
    "ĠHart": 36863,
    "Ġprofit": 36874,
    "ĠEst": 47482,
    "Charl": 36881,
    "Ġcoron": 36896,
    "ĠPharm": 37653,
    "Mar": 46572,
    "SP": 49832,
    "ĠCut": 48905,
    "Ġsplend": 36941,
    "ĠDud": 36943,
    "Ġhast": 36950,
    "Lim": 38929,
    "ĠBY": 36961,
    "Ġpatient": 36965,
    "Source": 36971,
    "Ġ\"\"": 36972,
    "Ġtil": 36974,
    "Ġmenstru": 36975,
    "ĠCel": 46990,
    "Plug": 36978,
    "ĠRiy": 36981,
    "ĠBeck": 47627,
    "Ġvandal": 37005,
    "ĠTanz": 37015,
    "Ġquir": 47817,
    "Ġenlarg": 37032,
    "pay": 37046,
    "ĠHouse": 37051,
    "Ġfirst": 37063,
    "ĠGamer": 45103,
    "ĠEle": 42396,
    "Ġlar": 37091,
    "Wil": 37094,
    "Ġcamoufl": 37098,
    "Ġmasc": 48175,
    "hab": 37107,
    "Requ": 41994,
    "Br": 46893,
    "ĠCald": 37132,
    "Ġbri": 37133,
    "Ġï¿½ï¿½ï¿½ï¿½": 37134,
    "Ġchamp": 37137,
    "Ġsulf": 37147,
    "ĠJournal": 45389,
    "Ġaux": 37164,
    "Ġhepat": 37184,
    "ĠKos": 37190,
    "ĠCe": 37194,
    "ĠRA": 37195,
    "57": 48469,
    "Ġhypert": 37199,
    "Ġlamb": 37201,
    "Ġseism": 37208,
    "ĠLenn": 37215,
    "ĠGa": 41053,
    "Ġfrog": 37220,
    "ĠProsecut": 47943,
    "ĠHod": 37225,
    "ĠNI": 37228,
    "ĠMonitor": 37229,
    "FT": 37230,
    "hun": 37233,
    "Ġcrown": 37237,
    "Ġburst": 37238,
    "Ġuseful": 37241,
    "Ġpersecut": 37246,
    "Ġimpuls": 37250,
    "think": 37255,
    "Last": 37256,
    "ĠThor": 37264,
    "ĠSas": 37272,
    "ĠAppropri": 37297,
    "dro": 48998,
    "ĠSloven": 37307,
    "Do": 46832,
    "Streamer": 37319,
    "TPP": 37324,
    "cf": 37326,
    "Ġbiod": 37334,
    "Ġfeud": 37336,
    "Ġdisclaim": 37337,
    "oe": 37345,
    "ĠRud": 48429,
    "Ġadren": 37352,
    "ĠDust": 37361,
    "ĠSau": 37363,
    "Ġshred": 37369,
    "Factory": 37376,
    "Ġabbre": 37385,
    "Ġunavoid": 37390,
    "Ġannot": 37392,
    "ĠLove": 44128,
    "Ġunim": 37401,
    "Ġbarr": 37403,
    "Ġsurrog": 37405,
    "Ġcategor": 37406,
    "Ġdrain": 37409,
    "ĠWhats": 37411,
    "oler": 37413,
    "inv": 44442,
    "Ġblind": 39360,
    "intern": 45354,
    "HE": 37427,
    "Ġforest": 37428,
    "78": 49910,
    "Ġmog": 37435,
    "ĠSect": 37448,
    "ĠPip": 37454,
    "avi": 37461,
    "Ġultras": 37466,
    "Ġorchestr": 37473,
    "ĠIron": 37476,
    "Ġoxid": 37512,
    "Ġhumili": 42404,
    "79": 49987,
    "ĠVM": 37499,
    "ĠFab": 37504,
    "ĠDj": 37515,
    "ĠFeed": 37519,
    "Ġstupid": 37520,
    "ĠYugoslav": 37522,
    "Ġpuls": 37528,
    "pret": 37529,
    "Iter": 37532,
    "ĠMaster": 37544,
    "ĠWho": 37552,
    "ĠUK": 37554,
    "\"\"": 37556,
    "every": 46802,
    "CON": 47287,
    "IR": 48805,
    "Ġmelt": 37569,
    "aby": 38091,
    "05": 47583,
    "Ġcontest": 43792,
    "ĠGRE": 47351,
    "paralle": 37604,
    "ĠGin": 37622,
    "ĠSTAT": 46768,
    "Ġkin": 37637,
    "ĠSi": 44941,
    "ĠNeighbor": 37659,
    "Ġstadium": 37669,
    "Ġbrilliant": 37673,
    "ï¸": 37674,
    "Ġsubmer": 37675,
    "ĠMembers": 37684,
    "Ġarche": 37687,
    "Ġcripp": 38706,
    "ĠTrop": 37701,
    "ĠCher": 37703,
    "Ġcer": 37718,
    "Ġentr": 43563,
    "ĠBarcl": 37730,
    "@@@@": 37736,
    "ĠAus": 37737,
    "arant": 37741,
    "Ġcheer": 37744,
    "bi": 43337,
    "Ġinexper": 37748,
    "Ġplate": 37753,
    "ĠInqu": 40907,
    "ism": 43871,
    "ily": 37765,
    "la": 37769,
    "Ġstew": 37775,
    "Ġbump": 37779,
    "ĠMas": 37783,
    "Ġcontempl": 49897,
    "Ġhandgun": 37805,
    "Aut": 47394,
    "ĠAppro": 37811,
    "works": 37812,
    "Ġoverc": 49235,
    "ĠAS": 48190,
    "Dat": 37850,
    "ĠInvestig": 49244,
    "Ġundes": 37862,
    "Ġverb": 37864,
    "Ġ21": 37868,
    "Ġdysfunction": 37872,
    "Ġsegreg": 37880,
    "Config": 37894,
    "ĠCumm": 37899,
    "Font": 37905,
    "ĠLanc": 44867,
    "75": 48110,
    "ĠScholars": 37923,
    "pol": 37936,
    "Ġunsett": 37937,
    "ĠLum": 37939,
    "ĠObama": 37940,
    "Hy": 37942,
    "ĠRoth": 37943,
    "log": 37980,
    "second": 42757,
    "ami": 37986,
    "ĠByr": 44717,
    "ĠNicarag": 37997,
    "ĠHuck": 37998,
    "Ġamph": 38000,
    "Ġvisc": 38004,
    "build": 49779,
    "ĠMole": 38020,
    "Ġtract": 42130,
    "ared": 38026,
    "Ġgeneral": 38029,
    "ĠLev": 38039,
    "ĠOP": 49025,
    "Ġ000": 38071,
    "Ġglyph": 38074,
    "ĠHast": 38075,
    "ĠBE": 38076,
    "Ġexacerb": 49267,
    "Ġpul": 44850,
    "izont": 38087,
    "Doc": 38099,
    "Ġtent": 40937,
    "Ġintermitt": 38106,
    "Ġflash": 49300,
    "Ġ()": 38122,
    "46": 40397,
    "Ġingest": 38127,
    "ĠGhost": 49782,
    "ĠãĤ": 38135,
    "zan": 38140,
    "ĠChim": 38144,
    "ĠTyr": 38146,
    "ĠSabb": 38147,
    "Ġdent": 38153,
    "Ġborder": 38167,
    "Ġupset": 38168,
    "Ġcold": 38172,
    "ĠPep": 38173,
    "],": 38175,
    "ĠHapp": 38201,
    "Ġhub": 38204,
    "ĠKor": 43842,
    "Ġgrocer": 38209,
    "ĠGors": 38210,
    "ĠTyph": 38213,
    "ĠBom": 44139,
    "Ġsurge": 38224,
    "ĠPrint": 43863,
    "ĠBehavior": 38228,
    "Pak": 38230,
    "ĠIo": 38233,
    "Ġdeterior": 44270,
    "ĠMist": 47075,
    "ĠRw": 38252,
    "ĠParliament": 38256,
    "èĢ": 38264,
    "ĠYemen": 38279,
    "Secret": 38286,
    "ACT": 44455,
    "ĠRefuge": 42536,
    "odd": 38298,
    "ĠMahm": 38299,
    "Ġskull": 38301,
    "storm": 38308,
    "oter": 38316,
    "Ġreinforce": 38323,
    "ĠJohann": 38324,
    "Ġgym": 38326,
    "Ġhippocamp": 38332,
    "ĠComput": 38334,
    "Ġsquare": 38335,
    "ĠKrish": 38339,
    "ĠHorn": 38347,
    "Ġjeopard": 38351,
    "ĠHearth": 38360,
    "Ġeject": 38377,
    "Ġbin": 38385,
    "ĠCogn": 38400,
    "Comb": 38412,
    "Ġcondol": 38416,
    "ĠLA": 38420,
    "ĠOR": 43646,
    "ĠVander": 38429,
    "start": 46726,
    "Ġmillisec": 38439,
    "Alex": 38453,
    "Ġkinderg": 38462,
    "Ġquot": 49801,
    "Ġdeton": 38499,
    "ĠPik": 38500,
    "Ġsubdu": 38504,
    "ĠGaz": 38517,
    "Ã¯": 38521,
    "Ġacron": 38532,
    "ĠKar": 45899,
    "Hun": 38548,
    "vant": 38560,
    "ulner": 40665,
    "uel": 38580,
    "ĠSPEC": 38591,
    "ĠRic": 38592,
    "Ġadminister": 38594,
    "Ac": 40298,
    "Ġmater": 38603,
    "stad": 38608,
    "FA": 42425,
    "ĠPred": 49206,
    "ĠMiche": 38617,
    "ĠBent": 38626,
    "Fre": 38630,
    "Ġhyster": 46504,
    "Exper": 44646,
    "lig": 38655,
    "Ġapplaud": 38656,
    "Ġredist": 41170,
    "ĠNeuro": 48860,
    "ĠMadd": 38665,
    "ĠImper": 38674,
    "ĠDrop": 38675,
    "Ġencomp": 43751,
    "ĠVert": 38682,
    "Ġfilib": 38685,
    "ĠCav": 38688,
    "Ġcowork": 38690,
    "FL": 38693,
    "Ġaudit": 38694,
    "gem": 38698,
    "Ġlav": 38702,
    "Ġhierarch": 38703,
    "Sl": 38708,
    "Sw": 38723,
    "Ġneck": 38732,
    "ĠBrav": 38735,
    "ait": 38740,
    "ĠWass": 38742,
    "Ġrepair": 38750,
    "âĢĭ": 38754,
    "Ġgive": 49765,
    "HAHA": 38766,
    "Ġtorped": 38768,
    "ark": 45288,
    "Ġpurpose": 44881,
    "ĠOrt": 38784,
    "iment": 38796,
    "Ġunlock": 38797,
    "ĠEnlight": 38802,
    "ĠWid": 38806,
    "ĠCind": 40678,
    "ĠAfter": 38808,
    "ikh": 38810,
    "Ġconspic": 38834,
    "Ġwear": 38837,
    "ĠRece": 44715,
    "ĠButter": 38853,
    "ĠSho": 40255,
    "ĠFI": 45556,
    "''": 44393,
    "isher": 38861,
    "Ġexport": 38878,
    "Ġenv": 38882,
    "Thumbnail": 38887,
    "Ġexcerpt": 38891,
    "Ġglobal": 38900,
    "ĠMalf": 38902,
    "craft": 38905,
    "ĠBond": 38906,
    "ĠKiss": 38907,
    "cat": 38910,
    "ĠAmend": 38914,
    "ÂłÂłÂłÂłÂłÂłÂłÂł": 38917,
    "hy": 48974,
    "ĠPill": 38924,
    "ĠTransform": 38930,
    "unct": 38932,
    "Mine": 38939,
    "Ġproof": 38942,
    "Ġindex": 41242,
    "Ġcater": 38956,
    "Ġensl": 38961,
    "Ġawaken": 38962,
    "Ġdy": 49797,
    "Ġtremb": 38973,
    "URR": 38982,
    "ĠPas": 40755,
    "ĠUCH": 38998,
    "Ġchampion": 39002,
    "round": 39007,
    "ĠGad": 39011,
    "Again": 39021,
    "Ġnormal": 39024,
    "Ġscal": 43610,
    "ĠCod": 41727,
    "ĠBell": 39049,
    "Cap": 39060,
    "ĠCth": 39061,
    "ront": 39066,
    "Ġscrim": 39070,
    "Ġresurg": 39075,
    "²": 39078,
    "Ġerad": 39084,
    "Ġexplore": 45276,
    "auth": 41362,
    "Ġsize": 46970,
    "Ġentrepreneur": 39110,
    "ĠAval": 39345,
    "ĳ": 39119,
    "ĠFen": 39139,
    "^^": 39142,
    "Ġboo": 39144,
    "Prosecut": 39146,
    "Ġlett": 39151,
    "Ġspiritual": 39154,
    "ju": 39172,
    "ĠCheck": 39177,
    "Ġsnipp": 44859,
    "ĠMathemat": 39193,
    "Ġelectro": 45948,
    "Bro": 45279,
    "ãĤ·": 39212,
    "ĠChero": 39221,
    "Lat": 39223,
    "Ġuncont": 39228,
    "VAL": 39233,
    "wood": 39238,
    "ospons": 39245,
    "Ġwhisk": 39246,
    "ĠDeV": 39248,
    "Ġadvantage": 39257,
    "ĠEditor": 39270,
    "Ġfung": 39271,
    "Ġdissent": 39272,
    "ĠLex": 39285,
    "pract": 39286,
    "ĠCorinth": 39291,
    "ĠAch": 39306,
    "ĠJur": 39322,
    "umm": 39323,
    "Ġmun": 39331,
    "ji": 39343,
    "Ġslam": 39348,
    "ĠAlic": 39352,
    "ĠRid": 39361,
    "Ġsidel": 39377,
    "ĠPru": 39382,
    "eed": 39387,
    "Order": 39400,
    "ĠWa": 39414,
    "ĠMaz": 39416,
    "Head": 39426,
    "Buy": 39438,
    "ĠAo": 39448,
    "ilater": 39452,
    "Ġpetition": 39486,
    "pop": 47313,
    "Delivery": 39494,
    "quick": 39497,
    "quickShip": 39498,
    "prim": 39499,
    "isSpecial": 39500,
    "inventory": 39501,
    "channel": 39502,
    "BO": 39503,
    "ĠMulti": 39504,
    "Ġ~": 47540,
    "Ġantioxid": 48893,
    "ĠChrom": 39512,
    "Ġadvent": 39515,
    "ĠRelations": 39516,
    "lay": 39531,
    "ĠCell": 49817,
    "ĠNotting": 39547,
    "ĠDaniel": 39553,
    "ĠPOLIT": 39562,
    "é¾įå¥": 39566,
    "Ġvet": 39567,
    "ĠJin": 39568,
    "Min": 45415,
    "enf": 39572,
    "ĠNA": 39574,
    "ĠHE": 47644,
    "Ġcrus": 39601,
    "Ġcarn": 41664,
    "Ġ........": 44657,
    "Ġbear": 39617,
    "Ġembry": 49455,
    "ĠThunder": 39632,
    "Ġchuck": 43100,
    "jri": 39635,
    "gal": 39652,
    "âĻ": 41043,
    "Class": 39659,
    "upload": 39665,
    "guy": 39667,
    "ĠFres": 39672,
    "ĠBlue": 39677,
    "ĠHeb": 39681,
    "ĠMead": 43613,
    "Ġdelet": 39693,
    "ĠMoon": 39696,
    "âĢ¢âĢ¢": 39712,
    "Ġconform": 39719,
    "ours": 39720,
    "Ġplent": 39721,
    "regn": 39727,
    "Ġperenn": 39728,
    "Var": 39754,
    "uy": 39757,
    "Ġunm": 39761,
    "Ġtimet": 39766,
    "ĠDraw": 39772,
    "Sy": 42492,
    "Ġomn": 39791,
    "Mo": 39794,
    "ĠRoad": 39810,
    "Ġcanon": 39836,
    "ĠStrongh": 39837,
    "Ġperf": 39839,
    "Ġreign": 39843,
    "Ġroot": 39850,
    "ĠWra": 39851,
    "ĠParam": 39862,
    "Ġexqu": 39868,
    "ĠWonder": 42458,
    "ĠSmith": 39876,
    "orpor": 39877,
    "ĠYam": 45228,
    "Ġfingert": 39887,
    "Ġabsent": 39898,
    "ĠLil": 39900,
    "CRIP": 39910,
    "ĠStars": 39917,
    "Ġdisappro": 48611,
    "Ġshadow": 39920,
    "Ġlament": 39921,
    "ĠPad": 39933,
    "Ter": 44543,
    "hum": 44511,
    "Ġside": 39962,
    "ĠMand": 46763,
    "å§": 39980,
    "FIN": 39981,
    "oreAnd": 39985,
    "Buyable": 39987,
    "ĠRamp": 39989,
    "ĠNiet": 49528,
    "brow": 40004,
    "ĠWere": 40006,
    "Ġendeav": 46799,
    "ĠHav": 40019,
    "*/": 40023,
    "ĠRank": 45152,
    "ĠDuc": 40034,
    "pre": 46795,
    "Ġbest": 47536,
    "ĠPOW": 40040,
    "Ġcaf": 45966,
    "Ġfluor": 40056,
    "Ġgross": 40061,
    "Ġshowc": 44809,
    "engine": 40066,
    "Ġtrim": 40070,
    "osc": 47973,
    "ĠCand": 44718,
    "Lew": 40075,
    "Ġtrump": 40079,
    "Jim": 40080,
    "Ġmirac": 40081,
    "ãħĭ": 40090,
    "word": 40091,
    "ĠDor": 40094,
    "ĠDa": 40680,
    "Ġsurn": 40103,
    "Ġblink": 40105,
    "Ġhalluc": 40116,
    "ISS": 40118,
    "Ġattain": 40120,
    "Ġ38": 49559,
    "TR": 42218,
    "Sov": 40153,
    "GGGG": 40160,
    "ĠFranco": 40164,
    "gd": 40165,
    "ĠEgg": 40178,
    "ĠVo": 40185,
    "Cra": 40186,
    "ĠRagnar": 40196,
    "Sah": 40206,
    "Ġinconsist": 43576,
    "Ġgraz": 40215,
    "ĠFun": 40225,
    "ĠNa": 49149,
    "Consider": 40220,
    "Ġcod": 40226,
    "nut": 40227,
    "micro": 40230,
    "equ": 47948,
    "Abs": 40246,
    "sil": 40248,
    "ĠSab": 45644,
    "Ġglac": 44284,
    "ĠOne": 40263,
    "ground": 40265,
    "Ġincident": 42003,
    "ĠClarks": 40269,
    "ĠCorrect": 40271,
    "ĠCompl": 40281,
    "ĠDexter": 40282,
    "Max": 40286,
    "Ġgloss": 40296,
    "Ġsatir": 40302,
    "ĠCla": 40304,
    "ape": 49273,
    "Link": 40319,
    "ĠVir": 40329,
    "Ġenvironmental": 40331,
    "nox": 40336,
    "acly": 40350,
    "Ġbitter": 40353,
    "Ġvou": 41007,
    "ĠMak": 40372,
    "ãĥĩ": 40374,
    "ĠHunting": 40389,
    "hew": 40390,
    "best": 40396,
    "Rob": 40401,
    "Ġspaces": 40408,
    "cs": 40409,
    "ĠWing": 40413,
    "ĠGrizz": 40414,
    "El": 43313,
    "lear": 40429,
    "Ġsymm": 40431,
    "Ġexempl": 40435,
    "ĠRoss": 40441,
    "Ġdispens": 49881,
    "Ġcompliment": 40446,
    "ĠBeir": 40447,
    "igs": 45381,
    "mas": 40451,
    "Point": 40455,
    "Ġcombat": 40456,
    "Ġ\\(": 40464,
    "Ari": 40477,
    "Ġsquad": 40478,
    "Ġcontrast": 49499,
    "Ġlib": 40484,
    "Ġupro": 40486,
    "Ġredevelop": 40496,
    "Ġimagin": 40883,
    "Ġapost": 46074,
    "ĠDiet": 40512,
    "uts": 40513,
    "By": 48109,
    "Ġtac": 43803,
    "Ġcame": 40539,
    "like": 40543,
    "Ġconstitution": 40545,
    "Ġbullet": 40558,
    "Honest": 40562,
    "onse": 40564,
    "ovy": 40567,
    "ĠRosen": 41661,
    "Ġnas": 45164,
    "Ġinspir": 40585,
    "Ġinsane": 40593,
    "del": 40595,
    "ĠUE": 40603,
    "ither": 40606,
    "ĠPublic": 44810,
    "ĠWinc": 40613,
    "ĠLif": 40615,
    "ĠLIM": 40625,
    "Ġthreshold": 40630,
    "ĠCarn": 43922,
    "Ġgastro": 40632,
    "Ġpurported": 40636,
    "Ġsuperhero": 40641,
    "ĠCyn": 40642,
    "ĠShir": 40647,
    "don": 40660,
    "ĠTiff": 40673,
    "ĠPatt": 40674,
    "Coun": 40685,
    "Ġrelic": 40715,
    "Ġquad": 40722,
    "icip": 40733,
    "Ġdoctor": 40740,
    "Ġengulf": 40742,
    "ĠEnc": 40743,
    "ĠConsult": 40750,
    "ĠCOUN": 40757,
    "Ġgran": 40758,
    "Ġparach": 40760,
    "Virgin": 40762,
    "ĠIgn": 40777,
    "Ġdorm": 40783,
    "ĠFirst": 40784,
    "Girl": 40789,
    "exec": 40794,
    "Chel": 40798,
    "Ġmasturb": 40799,
    "Georg": 40817,
    "extreme": 40818,
    "Ġrod": 49819,
    "Dial": 43949,
    "HH": 40845,
    "ĠTraff": 40852,
    "Ġprivat": 40855,
    "Ġbart": 40863,
    "Atl": 43227,
    "Ġhug": 46037,
    "ĠFact": 40885,
    "ĠDrac": 40887,
    "ĠBoo": 40891,
    "ĠSpiel": 40896,
    "Educ": 40928,
    "ĠTitan": 49380,
    "Ë": 45735,
    "Ġthird": 40933,
    "ĠPra": 40941,
    "sur": 48591,
    "Spl": 40950,
    "Develop": 45096,
    "Ġlan": 40952,
    "duc": 40958,
    "conserv": 40960,
    "Ing": 40967,
    "Ġhamm": 40968,
    "gov": 40975,
    "Ġcher": 48048,
    "Ġalien": 44729,
    "Ġpand": 41019,
    "prov": 41024,
    "Ġrecol": 41030,
    "text": 41038,
    "fre": 41040,
    "ĠTAM": 41042,
    "Ġuter": 41048,
    "Ġage": 41055,
    "Ġdiscretion": 41059,
    "stant": 41066,
    "Ġannex": 48926,
    "Color": 41075,
    "âĦ¢": 41078,
    "COM": 41080,
    "ĠEve": 41081,
    "ĠPros": 41087,
    "ĠSever": 41088,
    "ĠSelect": 41089,
    "ĠTay": 41091,
    "Ġski": 41093,
    "Ġ?": 41094,
    "Tes": 41096,
    "scient": 41100,
    "Ġpremature": 41115,
    "Ġmanual": 41116,
    "obb": 41117,
    "ĠCass": 46495,
    "nature": 41125,
    "assets": 41128,
    "Ġdefinitive": 41130,
    "ĠLaf": 41133,
    "Ġstagn": 45579,
    "Ġdissatisf": 44200,
    "stre": 41147,
    "Ġveterin": 41149,
    "ĠBerm": 41155,
    "skin": 41157,
    "ĠAsc": 41161,
    "Ġpreview": 41163,
    "Prot": 41171,
    "Ġretrospect": 41177,
    "My": 41189,
    "ĠGer": 41204,
    "Ġrepublic": 41222,
    "Ġsky": 47311,
    "ĠBuck": 48098,
    "far": 41249,
    "ĠSiber": 47710,
    "ĠAtmosp": 41261,
    "ĠSatan": 41263,
    "ĠWel": 41269,
    "Ġhandc": 44218,
    "ĠRee": 41278,
    "Ġdazz": 41280,
    "month": 41282,
    "ĠBed": 41285,
    "Download": 41296,
    "Ġhij": 48237,
    "ĠRow": 44587,
    "Ġcentr": 49459,
    "Ġsham": 41309,
    "OV": 41321,
    "Ġantidepress": 41642,
    "Har": 41334,
    "Ġ50": 46978,
    "ĠSpark": 41359,
    "ĠMahar": 41369,
    "Access": 41374,
    "Ġconvert": 41382,
    "ĠBour": 41383,
    "Ġpowd": 41387,
    "pill": 41388,
    "ĠMans": 41390,
    "Ġbother": 46038,
    "Material": 41402,
    "ice": 41408,
    "Ġanecd": 49278,
    "Ġbehaviour": 41417,
    "Ġcorros": 41422,
    "Ġbesie": 41425,
    "ween": 41426,
    "mult": 47846,
    "Ġvital": 41432,
    "ĠDro": 41437,
    "Ġinsight": 41441,
    "',": 41452,
    "Ġbuzz": 41464,
    "ĠItal": 41465,
    "ĠLoren": 41466,
    "ingu": 46454,
    "Ġundersc": 41476,
    "Ġvision": 41485,
    "ĠTempl": 41486,
    "awa": 41487,
    "current": 41490,
    "Ġnob": 41493,
    "Ġpartner": 41504,
    "Trans": 48465,
    "ĠConstant": 44410,
    "Ġoffensive": 41519,
    "ĠTaiwan": 41522,
    "gn": 41536,
    "Ġabsurd": 41538,
    "Ġautobi": 41540,
    "Plan": 41546,
    "lean": 41552,
    "Cru": 41556,
    "Ġpollut": 41569,
    "ĠPCI": 41570,
    "Ġsilhou": 41579,
    "ðŁ": 46994,
    "Ġove": 41595,
    "Ġbour": 41600,
    "ĠNat": 41620,
    "ĠTY": 41621,
    "ĠGEN": 41622,
    "UN": 47206,
    "Ġprincip": 44743,
    "ĠLis": 41643,
    "hall": 41656,
    "Ġresurrect": 41659,
    "Ġdismant": 43746,
    "Ġblasp": 41678,
    "ãĥķ": 48202,
    "effic": 45633,
    "ĠHab": 41695,
    "Ġthen": 41697,
    "Ġessential": 41699,
    "ĠIceland": 41704,
    "Ġunsus": 41720,
    "6666": 41722,
    "Ġapprehend": 41724,
    "Ġdisrespect": 41732,
    "ĠPlaint": 41735,
    "din": 41738,
    "Applic": 41740,
    "Ġquar": 41743,
    "ifest": 41749,
    "CE": 41751,
    "Ġextr": 41769,
    "see": 41786,
    "ĠElectric": 41793,
    "ĠPerspect": 41796,
    "Ġmagic": 41800,
    "ĠTour": 41802,
    "Nit": 41811,
    "project": 41813,
    "nex": 44265,
    "Ġwast": 45790,
    "Ġlaud": 41831,
    "ĠTheNitrome": 41835,
    "ĠÙ": 46793,
    "ĠPav": 41839,
    "Ġinfiltr": 43607,
    "ĠGentle": 41857,
    "ĠNav": 47125,
    "ĠBulg": 41864,
    "esp": 41865,
    "ĠPly": 41870,
    "Ġdomest": 41872,
    "ĠYour": 41877,
    "Ġsynchron": 46937,
    "ĠCaf": 41896,
    "Ġnud": 41901,
    "Report": 41904,
    "Ġdeduct": 48257,
    "Ġæ": 41909,
    "Ben": 43944,
    "Rom": 41929,
    "ĠMong": 44109,
    "Ġreligious": 41939,
    "beh": 46316,
    "Ġhemor": 41948,
    "||": 41955,
    "Ġdod": 49137,
    "ĠCoy": 41973,
    "Ġbru": 45213,
    "éĹ": 41979,
    "ĠGram": 41980,
    "ĠScandinav": 41983,
    "ĠKard": 41984,
    "Ġeffort": 41986,
    "98": 48832,
    "Ġroof": 41996,
    "Ġdense": 42000,
    "ĠTax": 48972,
    "ĠBie": 42008,
    "Ġhide": 42014,
    "ĠIl": 42017,
    "Ġfundamental": 42022,
    "ĠPolic": 42028,
    "gorith": 42034,
    "ument": 42045,
    "Ġpatriarch": 42046,
    "arna": 42056,
    "Ġvehement": 42072,
    "ĠPap": 45862,
    "Luck": 42077,
    "Ġcircuit": 42089,
    "Phil": 42094,
    "ĠAnders": 42101,
    "Ġdisob": 42111,
    "ĠSaw": 42116,
    "Ġwors": 44583,
    "Ġlever": 42134,
    "ãĤ¤": 42141,
    "Ġencounter": 42143,
    "ĠTable": 42144,
    "ĠInstr": 43698,
    "uit": 42157,
    "Ġsales": 42159,
    "Own": 42164,
    "Ġuncond": 42168,
    "Dragon": 42169,
    "ĠConvers": 42172,
    "Ġcyt": 42185,
    "WAY": 42196,
    "Ġfly": 44857,
    "æĺ": 42213,
    "Ġtam": 42216,
    "IST": 42225,
    "Ġta": 42233,
    "quart": 42253,
    "Ġreperto": 42260,
    "ivari": 42269,
    "esty": 42275,
    "09": 42279,
    "}}": 42280,
    "Ġail": 42294,
    "Ġprofessional": 42299,
    "ĠAdam": 42310,
    "ĠUnivers": 42316,
    "Ġbiom": 49696,
    "Ġsrf": 42810,
    "accompan": 42333,
    "ĠCer": 42338,
    "SH": 49168,
    "Ġnonex": 42346,
    "ĠClare": 42347,
    "aver": 42355,
    "ĠStraw": 42356,
    "Ġhorrend": 42358,
    "Supp": 49167,
    "mond": 42365,
    "fix": 42369,
    "ĠPlug": 42381,
    "å¥": 42382,
    "Ġwaters": 42385,
    "incre": 42392,
    ").": 42414,
    "ĠAL": 49321,
    "ĠCapital": 42423,
    "Ġpleas": 42428,
    "Ġkne": 42432,
    "Ġpolar": 46214,
    "PH": 42454,
    "ĠCL": 49641,
    "disc": 42468,
    "stra": 42474,
    "Ġfleet": 42483,
    "-+-+": 42489,
    "76": 49386,
    "Ġcomplain": 42509,
    "Ġantit": 42511,
    "Ġextingu": 42519,
    "Cor": 45425,
    "ĠâĪ": 42528,
    "Ġmicrobi": 48210,
    "\"}": 42530,
    "ĠSound": 42540,
    "ĠJane": 42544,
    "ĠGeoff": 42548,
    "ĠHem": 49805,
    "Ġcass": 42557,
    "ĠSwe": 42563,
    "gin": 42567,
    "Ġbold": 42576,
    "arij": 42579,
    "ĠStephen": 42583,
    "ĠSeym": 42588,
    "ĠPa": 49357,
    "lat": 48754,
    "ĠVeget": 42612,
    "ĠTD": 42618,
    "Ġsmug": 42621,
    "707": 42622,
    "ĠWITH": 42626,
    "ĠSER": 47198,
    "Ġbrace": 42638,
    "Ġparamed": 42641,
    "Ġpamph": 42664,
    "ĠHirosh": 42667,
    "\".": 42669,
    "Ġmock": 42680,
    "ache": 42706,
    "Parent": 42714,
    "ãĥ¯": 42728,
    "Ġacid": 42732,
    "ĠRespons": 42733,
    "ĠJas": 42737,
    "abs": 48291,
    "Mor": 42742,
    "ĠSupplement": 47910,
    "oli": 42754,
    "ĠKinn": 42755,
    "mitted": 42756,
    "Vari": 42760,
    "GRE": 42761,
    "Ġhect": 42770,
    "Af": 44059,
    "Ġard": 42778,
    "cient": 42782,
    "ĠWould": 42793,
    "ĠGrim": 42822,
    "uton": 42823,
    "Ġly": 42831,
    "Op": 42838,
    "æĸ": 42840,
    "Ġchlor": 44666,
    "Ġpolyg": 42856,
    "Ġmiscon": 45424,
    "Ġharsh": 42868,
    "ĠStream": 42869,
    "ĠGiul": 42871,
    "ĠVel": 42882,
    "ĠCliff": 42904,
    "lene": 42908,
    "ĠCaucas": 47735,
    "Ġappell": 44720,
    "Ġlia": 42921,
    "EStream": 42922,
    "Jenn": 42932,
    "ĠYose": 42933,
    "Ġreef": 42935,
    "Ġgot": 42942,
    "Dec": 42943,
    "ĠYanuk": 42947,
    "Ġoutlaw": 42948,
    "ĠAer": 47220,
    "Game": 42986,
    "Ġprice": 42989,
    "aker": 42991,
    "Ġdisl": 42997,
    "Non": 43003,
    "Ġunres": 43009,
    "Ġunexpl": 43031,
    "cal": 43033,
    "ä½": 45380,
    "Ir": 43038,
    "ãĤ¹": 43047,
    "Ġ%": 43058,
    "ĠJPM": 43063,
    "ĠPam": 43086,
    "atl": 43087,
    "Ġoverfl": 43092,
    "ãĤ¼": 43106,
    "uns": 43120,
    "Ġlev": 43128,
    "Ġpig": 43130,
    "ĠKra": 43137,
    "ĠCLS": 43139,
    "Ġchap": 43143,
    "ĠPublisher": 43148,
    "ĠZur": 43157,
    "Ġnurt": 47161,
    "Ġfri": 43163,
    "Ġphyl": 43167,
    "ĠPrep": 43171,
    "Ġtreasure": 43173,
    "Ġadject": 43186,
    "ĠSolid": 43198,
    "War": 43209,
    "Under": 43212,
    "Ġanth": 43214,
    "AAAA": 43233,
    "pa": 43236,
    "kill": 43237,
    "Ġmobil": 49911,
    "uke": 43250,
    "Ġpel": 43422,
    "ĠCoast": 43258,
    "Ġbored": 43260,
    "Ġneoc": 43275,
    "fold": 43296,
    "fif": 43301,
    "Ãį": 43314,
    "ĠCanter": 43326,
    "ĠGam": 49063,
    "ĠCalcul": 43342,
    "AK": 43347,
    "Ġinterchange": 43360,
    "Fin": 48403,
    "Ġawkward": 43367,
    "ĠStur": 43368,
    "Norm": 43370,
    "Ġfan": 48908,
    "?\"": 43379,
    "03": 43382,
    "Ġcongrat": 47375,
    "web": 43393,
    "Ġindist": 43394,
    "ĠQU": 43403,
    "ĠCONT": 43404,
    "bern": 43405,
    "::::": 43406,
    "userc": 43412,
    "Ġenchant": 43451,
    "alys": 47302,
    "ĠGust": 43460,
    "VERS": 43462,
    "Rog": 43464,
    "ĠDH": 43474,
    "Miss": 43475,
    "Ġmanager": 43492,
    "Cry": 43497,
    "ĠTs": 43505,
    "Arc": 43508,
    "ģ": 45178,
    "ĠLuther": 43517,
    "Ġrobber": 43519,
    "soft": 43521,
    "OLOG": 43526,
    "Ton": 43528,
    "ĠHutch": 43537,
    "ĠTsuk": 43541,
    "Ġfug": 43544,
    "ĠSomew": 43553,
    "ĠSubject": 43560,
    "liter": 43564,
    "Sn": 49540,
    "His": 43575,
    "Ġpear": 43581,
    "ĠPAC": 43583,
    "ĠHS": 43586,
    "Ġovershadow": 43606,
    "Ġnuts": 43620,
    "ĠHob": 43622,
    "Flo": 43624,
    "Exec": 43630,
    "ĠWarrant": 43637,
    "Ġculmin": 44945,
    "cess": 45173,
    "56": 47660,
    "handed": 43664,
    "Ġfec": 43669,
    "ĠDocument": 43670,
    "way": 43677,
    "Ġnotebook": 43680,
    "Ġmarvel": 43682,
    "Ġcontag": 43689,
    "Ġpronoun": 43692,
    "Ġmorph": 46065,
    "fin": 46666,
    "Dom": 43706,
    "Ġpoke": 43707,
    "Ġtabl": 43713,
    "ĠBers": 43716,
    "Ġclich": 43718,
    "ĠRepl": 43731,
    "ĠRome": 43734,
    "ĠLav": 43736,
    "Ġtriumph": 43750,
    "ĠTele": 48412,
    "Ġbombard": 43767,
    "Ġmol": 43775,
    "ĠNer": 43776,
    "ĠTray": 43782,
    "ĠGrass": 43795,
    "ĠClick": 43796,
    "Ġelic": 43800,
    "ĠDemon": 43802,
    "Ġ35": 47312,
    "doctor": 43809,
    "sight": 43813,
    "ĠVers": 43824,
    "Ġgoof": 43834,
    "Ġderog": 43839,
    "ĠBuc": 43844,
    "Ġgoalt": 43858,
    "ĠRobb": 43862,
    "Ġpremie": 43864,
    "ĠPul": 43872,
    "Ġaval": 43873,
    "Elect": 43877,
    "Beg": 44943,
    "ĠShar": 43889,
    "ĠFraz": 43890,
    "ĠPresbyter": 43895,
    "Test": 43899,
    "ĠCoff": 43904,
    "Ġsemin": 43905,
    "Altern": 49533,
    "ethy": 43911,
    "ĠAccess": 48292,
    "Ġfootball": 43930,
    "ĠCS": 49656,
    "ĠKem": 43943,
    "Ġthw": 43945,
    "ĠGround": 43946,
    "Ġingen": 44952,
    "Ġfost": 43954,
    "Ġtuber": 43967,
    "ĠFunction": 43969,
    "aton": 43993,
    "Ġheads": 44002,
    "gun": 44010,
    "Second": 44021,
    "Ġplummet": 44027,
    "ĠLion": 44031,
    "Ġwars": 44049,
    "ĠBad": 44053,
    "ĠFer": 44057,
    "burn": 44058,
    "100": 47450,
    "ĠBundes": 44068,
    "Ġheal": 44070,
    "ãĥ¼ãĥ": 44071,
    "section": 44075,
    "mop": 44076,
    "Ut": 44095,
    "Ġreprint": 44107,
    "Ġgrace": 44108,
    "Ins": 44147,
    "Ġdex": 44150,
    "hearted": 44152,
    "ĠText": 44154,
    "ynt": 44156,
    "ĠÎ¼": 44160,
    "ĠCort": 45567,
    "ĠCork": 44166,
    "ĠWR": 44168,
    "ãĥĨ": 44176,
    "Ġbaff": 44177,
    "Ġentrepreneurs": 44181,
    "ĠDirector": 44182,
    "ĠGR": 44186,
    "ãĥ´": 44189,
    "Ġunimagin": 44191,
    "ĠCraft": 44195,
    "Ġcondu": 44202,
    "ĠKrist": 44212,
    "Ġpredic": 44217,
    "Ġfruit": 44219,
    "ĠLud": 44221,
    "ĠDeal": 44225,
    "Ġrenov": 46098,
    "Ġcumbers": 44236,
    "Ġwait": 44256,
    "Ġblunt": 44259,
    "stud": 49884,
    "Naz": 44272,
    "Ġpromul": 44277,
    "ĠSL": 44283,
    "ĠIch": 44292,
    "power": 44293,
    "Ġamy": 44307,
    "ĠAcqu": 44309,
    "ĠCant": 44322,
    "Ġcenter": 44340,
    "ĠAlban": 44360,
    "wal": 44368,
    "Ġgobl": 45965,
    "++++++++": 44372,
    "ĠYel": 44373,
    "opath": 44395,
    "Ġregrett": 44397,
    "ĠRib": 44409,
    "ĠPie": 44421,
    "ĠMerch": 44427,
    "ãĥ¼ãĥĨ": 44431,
    "Ġminimal": 44438,
    "ĠFn": 44449,
    "KN": 44451,
    "Ġthin": 44467,
    "ĠFem": 44472,
    "ĠPU": 44476,
    "ĠUtt": 44489,
    "ĠAUTH": 44491,
    "ĠUnle": 44492,
    "ctr": 44500,
    "LL": 44510,
    "ĠMicha": 44513,
    "Ġgrasp": 45314,
    "Ġunintention": 48143,
    "Ġcolour": 44544,
    "ĠSHAR": 44551,
    "Uk": 44559,
    "Ġcov": 44574,
    "Effect": 47483,
    "Ġdealers": 44588,
    "Ġbid": 44593,
    "Iron": 44595,
    "Dist": 44602,
    "ĠCorp": 44619,
    "ery": 44631,
    "ĠANG": 44637,
    "alde": 44640,
    "ĠCeleb": 44656,
    "ĠTC": 44659,
    "][": 44671,
    "upp": 44678,
    "Custom": 44684,
    "ĠALE": 44691,
    "Ġammon": 44702,
    "ĠSovere": 44709,
    "acter": 44710,
    "ĠAber": 44730,
    "Ġunic": 44731,
    "Ġoverr": 44732,
    "Lead": 44754,
    "tim": 44761,
    "Stre": 44772,
    "ĠPric": 44775,
    "ĠSuff": 44779,
    "Ġsou": 44788,
    "Ġcareg": 44789,
    "Ġhither": 44798,
    "ĠDISTR": 44802,
    "chen": 44804,
    "ĠRecon": 44805,
    "Ġpalp": 44806,
    "know": 44811,
    "Ġretri": 44814,
    "ĠGill": 44823,
    "does": 44829,
    "Â®": 44833,
    "Ġflatt": 44841,
    "Ġluck": 44865,
    "ĠAbyss": 44868,
    "function": 44869,
    "Ġnar": 44872,
    "ĠTac": 44877,
    "was": 44891,
    "Iss": 44892,
    "oz": 44894,
    "Vers": 44895,
    "ENC": 44900,
    "Ġredirect": 44903,
    "did": 44913,
    "Ġmillion": 48420,
    "ĠYoung": 44919,
    "ĠDmit": 44926,
    "ĠEric": 44932,
    "Ġintermedi": 44938,
    "ĠVolunte": 45391,
    "ĠDefin": 46379,
    "Ġdwind": 44960,
    "ĠBO": 44961,
    "Ġneighbourhood": 44966,
    "ATH": 44971,
    "ĠScy": 44972,
    "ĠCTR": 44994,
    "Pop": 44996,
    "Ġunb": 44998,
    "Ġdors": 44999,
    "Ġhypoc": 45004,
    "ĠAmbro": 45008,
    "Ġlights": 45027,
    "vari": 45031,
    "Ġsitu": 45035,
    "week": 45036,
    "ä¹": 45043,
    "Ġgor": 45059,
    "pm": 45066,
    "Port": 45075,
    "Ġ--------": 45082,
    "ĠBEL": 45084,
    "ĠPry": 45095,
    "ĠUSA": 45098,
    "Ġstockp": 45105,
    "Ġtreacher": 45110,
    "ĠAppalach": 45120,
    "sn": 45125,
    "creat": 45127,
    "uther": 46668,
    "Ġsuit": 45136,
    "day": 45137,
    "Ġwaste": 45138,
    "ĠTreasure": 45144,
    "Ġindec": 45145,
    "Ham": 45150,
    "ĠForest": 45158,
    "ĠBall": 48483,
    "Ġirresist": 45165,
    "\\/": 45167,
    "Ġanthrop": 45169,
    "ĠSylv": 45170,
    "Ġappra": 45181,
    "04": 49794,
    "ĠVolt": 45189,
    "CLASS": 45194,
    "nik": 45196,
    "ĠOrb": 45198,
    "ĠComment": 45210,
    "Ġbeet": 46461,
    "Ġ($": 45236,
    "Ġbooth": 45241,
    "ĠFeld": 45243,
    "Ġexcav": 45244,
    "Ġunfor": 45249,
    "ĠAchieve": 49241,
    "ime": 47521,
    "Ġstore": 45272,
    "Four": 45275,
    "¬": 45284,
    "Ġpine": 45285,
    "ĠãĤµ": 45289,
    "ĠãĤµãĥ¼ãĥĨãĤ£": 45290,
    "Ġov": 45291,
    "Ġhairc": 45293,
    "anas": 45296,
    "ni": 45299,
    "Ġminister": 45300,
    "Ġsul": 45303,
    "Jess": 45317,
    "Ġbreath": 45321,
    "ĠLauder": 45322,
    "Cr": 49129,
    "ĠEarthqu": 45336,
    "circ": 45342,
    "Ġorn": 45363,
    "ĠAdjust": 45369,
    "auld": 45382,
    "Techn": 45383,
    "Ġdetract": 45387,
    "Ġconduc": 45390,
    "Know": 45393,
    "Ġwavelength": 45401,
    "Ġattent": 45405,
    "ral": 45407,
    "Ġcraw": 45413,
    "ĠOliv": 45419,
    "Ġvener": 45427,
    "ĠKling": 45429,
    "Bo": 45431,
    "ibli": 45434,
    "mel": 45435,
    "Ġever": 45442,
    "ĠÂłĠÂłĠÂłĠÂł": 45451,
    "Let": 45453,
    "Ġblo": 45454,
    "Ġinflic": 45472,
    "ĠFranken": 45483,
    "ĠArg": 45496,
    "Ġbout": 45498,
    "ĠByz": 45517,
    "ĠDoll": 45537,
    "Ġrehears": 45540,
    "Ġassail": 49435,
    "ĠCoin": 45547,
    "ĠSV": 45554,
    "ãĥ³": 45568,
    "ĠInsp": 45572,
    "ĠSequ": 45580,
    "Ġintra": 45585,
    "Sus": 45587,
    "ĠManz": 45588,
    "ĠChatt": 45596,
    "Ġclo": 45598,
    "uct": 45602,
    "ĠMU": 45604,
    "ĠGalile": 45605,
    "«": 45610,
    "Bal": 45611,
    "ĠWyn": 45612,
    "ĠAk": 46655,
    "Like": 45617,
    "anim": 45618,
    "ĠRT": 45622,
    "Ġshorth": 45628,
    "ĠBrill": 45636,
    "Ġrepent": 45638,
    "Ġarter": 45639,
    "vi": 45646,
    "Ġintertw": 45650,
    "Ġalle": 45652,
    "ĠChamber": 45663,
    "ĠSail": 45669,
    "ĠWare": 45672,
    "Ġmiscar": 45676,
    "Ġchron": 49131,
    "ĠHER": 45692,
    "Ġextravag": 45742,
    "RED": 45744,
    "ĠSpeed": 45745,
    "RIP": 45768,
    "uj": 45769,
    "GR": 46591,
    "Ġdelinqu": 45771,
    "Ġcontempor": 45773,
    "Ġgimm": 45774,
    "ĠPeb": 45786,
    "ĠHort": 45796,
    "Ġfears": 45801,
    "otrop": 45829,
    "ĠCad": 45834,
    "Camp": 45847,
    "Ġstereotyp": 45857,
    "bt": 45863,
    "ĠSomers": 45868,
    "STR": 45871,
    "omin": 45879,
    "ĠCarm": 45882,
    "Balt": 45884,
    "ews": 45896,
    "dim": 45901,
    "Ġretreat": 45908,
    "ĠDick": 47230,
    "Ġaren": 45913,
    "level": 45915,
    "ĠSans": 45923,
    "Ġglam": 45930,
    "erm": 45932,
    "Ġdisorder": 45936,
    "Method": 45947,
    "Ġworsh": 45949,
    "some": 45993,
    "ĠMis": 45998,
    "ĠFemin": 46004,
    "åħ": 46013,
    "ĠSpec": 46016,
    "RES": 46019,
    "Ġsnow": 46487,
    "ĠNurs": 46023,
    "Ġnest": 46027,
    "ĠCelebr": 46034,
    "ĠCloud": 46043,
    "Ġfee": 46044,
    "ĠKrug": 46056,
    "Ġmism": 46063,
    "Rus": 46070,
    "Unt": 46077,
    "Ġtank": 46080,
    "ĠKub": 46099,
    "ohyd": 46103,
    "lesi": 46105,
    "CC": 46106,
    "ĠAj": 46107,
    "ĠPetra": 46109,
    "ĠConstantin": 46114,
    "Ġadherent": 46117,
    "omorph": 46119,
    "Fight": 46120,
    "Ġdear": 46124,
    "icks": 46126,
    "ĠâĢ¦": 46130,
    "Ġpige": 46132,
    "ĠResident": 46133,
    "Ġpessim": 46137,
    "iy": 46143,
    "Ġgloom": 46145,
    "=-=-=-=-": 46147,
    "phe": 46166,
    "Ġoutfield": 46167,
    "Ġproclaim": 46176,
    "Ġ__": 46189,
    "ĠKis": 46212,
    "Ġapprehens": 46218,
    "ĠSlow": 46229,
    "ĠOsc": 46230,
    "ĠUl": 49771,
    "ĠLone": 46246,
    "ks": 49878,
    "mort": 46260,
    "script": 46266,
    "angel": 46270,
    "Ġgap": 46274,
    "Ġbask": 46275,
    "Brow": 46277,
    "ĠStain": 46285,
    "ĠMub": 46289,
    "ĠRasm": 46294,
    "Ġmetic": 47373,
    "08": 49097,
    "ĠHOU": 46331,
    "cook": 46336,
    "ĠJar": 46340,
    "Ġalternative": 46341,
    "Ġantiqu": 46344,
    "ĠAdin": 46345,
    "PokÃ©": 46347,
    "Ġbust": 46354,
    "ogn": 46355,
    "ĠRah": 48288,
    "Ġrept": 46362,
    "Ġfolk": 46368,
    "ĠCOUR": 46372,
    "Ġreservoir": 46382,
    "DA": 46385,
    "Ġvivid": 46386,
    "ĠShow": 47653,
    "reet": 46393,
    "ĠÏ": 46396,
    "Ġbystand": 46397,
    "Ġnan": 46406,
    "ĠAuth": 46410,
    "Ġdebunk": 46427,
    "ĠPix": 46451,
    "ë": 46440,
    "ĠRPG": 46442,
    "complete": 46444,
    "Ġempt": 49078,
    "ĠDh": 46452,
    "Ġmold": 46470,
    "ĠXia": 46471,
    "ĠInquis": 46486,
    "Ġscrap": 46488,
    "ĠBurg": 46489,
    "Jac": 46496,
    "Ġspear": 46511,
    "Ġembro": 46512,
    "Ġconject": 46513,
    "jud": 46514,
    "Ġsweep": 46523,
    "COL": 46531,
    "Ĭ": 46533,
    "Ġconco": 46534,
    "Ġrich": 46537,
    "ĠTM": 46545,
    "ĠCatholic": 46547,
    "Ġdisemb": 46549,
    "ĠPROG": 46550,
    "Ty": 46552,
    "Ġmes": 48499,
    "ĠFrench": 46564,
    "ĠImmun": 46569,
    "assemb": 46571,
    "Ġcannabin": 47920,
    "Ġrupt": 46581,
    "ĠCart": 46583,
    "ĠPale": 46585,
    "Mad": 46590,
    "Ġcaus": 46595,
    "Ġfate": 46618,
    "ĠSah": 46627,
    "ĠQuin": 46629,
    "ĠLess": 46630,
    "ĠTasman": 46641,
    "ĠPrel": 46642,
    "ĠKaf": 46651,
    "Ġuphe": 46652,
    "Mat": 46657,
    "ĠNeb": 46660,
    "ĠNad": 46662,
    "ĠCly": 46667,
    "Ġphosph": 48725,
    "rovers": 46672,
    "ĠBeth": 46675,
    "Ġtant": 46682,
    "Ġauto": 46683,
    ";;;;;;;;": 46684,
    "ĠTot": 47214,
    "ĠCoc": 47967,
    "Ġtranqu": 46689,
    "ãĤ¨": 46693,
    "ĠEN": 46707,
    "Ġcontamin": 46728,
    "ĠKau": 46736,
    "ĠDres": 46738,
    "Ġunequiv": 46746,
    "ĠCitizens": 46747,
    "Ġpanc": 47512,
    "mbuds": 46757,
    "ĠPattern": 46765,
    "Ġexh": 46774,
    "Ġsarcast": 46782,
    "Ġlate": 46783,
    "ĠChin": 46788,
    "ĠGA": 46791,
    "ĠRobot": 46806,
    "Ġsorce": 46808,
    "ĠBorder": 46816,
    "Ġmosa": 46821,
    "Ġgirlfriend": 46839,
    "kn": 48555,
    "irs": 46853,
    "alg": 46856,
    "ĠClock": 46865,
    "ĠBak": 46866,
    "Ġthirst": 46869,
    "Ġfacult": 46871,
    "fter": 46876,
    "etch": 46877,
    "lv": 46892,
    "ĠCommand": 46895,
    "ĠVaugh": 47196,
    "Wal": 46897,
    "Ġib": 46905,
    "Ġapt": 46911,
    "ĠÂ§": 46916,
    "Ġ[+": 46920,
    "Ġperpend": 46935,
    "ĠRES": 46948,
    "ĠBast": 46954,
    "ĠHeal": 46957,
    "Environment": 46958,
    "Ġali": 46962,
    "ĠOkin": 46966,
    "Scot": 46975,
    "ĠMason": 46982,
    "ĠCoul": 46993,
    "ĠYellow": 47002,
    "Call": 47003,
    "ĠLeth": 47026,
    "Ġsuccumb": 47035,
    "ĠWast": 47037,
    "ĠDayton": 47044,
    "Ġjar": 47045,
    "Ġdisband": 47047,
    "Ġstriking": 47050,
    ".)": 47053,
    "ĠLynd": 47054,
    "Ġtumult": 47057,
    "Ġdisple": 47058,
    "Ġappe": 47061,
    "ĠTrip": 47063,
    "Ġproverb": 47072,
    "redit": 47078,
    "Ġpond": 47084,
    "Ġmm": 47085,
    "Ġclen": 47089,
    "ĠCors": 47090,
    "Ġcaric": 47091,
    "di": 47101,
    "mber": 47114,
    "Ġconvol": 47115,
    "Ġrud": 47126,
    "ĠLak": 47127,
    "OND": 47128,
    "Ġshotgun": 47137,
    "record": 47143,
    "ĠMul": 47147,
    "ĠFa": 47156,
    "Ġflavor": 47165,
    "call": 47168,
    "Ġdirection": 47169,
    "plan": 47172,
    "Ġç": 47177,
    "Ġtrip": 47184,
    "high": 47189,
    "ĠRust": 47194,
    "Ġhaven": 47195,
    "ĠOL": 47208,
    "ĠBeet": 47209,
    "ĠSO": 47211,
    "Ġimped": 47217,
    "Ġconcurrent": 47225,
    "imes": 47229,
    "©": 47235,
    "ĠWond": 47242,
    "Ġmountain": 47245,
    "ĠSchwarz": 47252,
    "ĠMull": 47253,
    "Ġchi": 47289,
    "Ġcab": 47293,
    "ness": 47301,
    "Ġbudget": 47305,
    "Ġprecinct": 47309,
    "compl": 47332,
    "ĠBung": 47338,
    "Ġsweat": 47344,
    "ĠOFF": 47346,
    "ĠStam": 47349,
    "Ġpac": 47362,
    "ESS": 47366,
    "Ġnumber": 47367,
    "Ġsway": 47377,
    "Ġsemif": 47378,
    "opa": 47382,
    "ĠLay": 47384,
    "TEXT": 47393,
    "Occ": 47403,
    "CD": 47412,
    "Ġindustrial": 47415,
    "ĠHuss": 47422,
    "ĠChen": 47423,
    "ĠCull": 47426,
    ",,,,": 47427,
    "Ġcoward": 47432,
    "ĠHels": 47433,
    "Bloom": 47441,
    "gre": 47446,
    "©¶æ": 47448,
    "Ġinstant": 47452,
    "ĠLiving": 47462,
    "ĠHil": 47463,
    "Ġchimpan": 47469,
    "ĠAad": 47472,
    "OOOO": 47477,
    "Josh": 47485,
    "Ġ36": 49072,
    "Ġdehyd": 47496,
    "Ġmath": 47506,
    "Ġsolicit": 47515,
    "Log": 47535,
    "ãĤ¢": 47539,
    "aware": 47557,
    "Ġsor": 47560,
    "ĠJordan": 47565,
    "hill": 47571,
    "Ġunwilling": 47581,
    "aim": 49183,
    "FO": 47598,
    "Ġrust": 47600,
    "Ġdistort": 47621,
    "Ġrav": 47622,
    "ĠIncarn": 47626,
    "Ġmelanch": 47631,
    "ĠDart": 47633,
    "Ġpage": 47639,
    "Who": 47641,
    "ĠCO": 47647,
    "Ö": 47648,
    "Ġtire": 47650,
    "204": 47681,
    "techn": 47689,
    "Ġdessert": 47695,
    "ĠGren": 47696,
    "ĠRams": 47704,
    "seek": 47716,
    "Ġweld": 47718,
    "ä»": 47732,
    "Ġleak": 47733,
    "í": 47736,
    "Ġclip": 47744,
    "Squ": 47756,
    "ĠChile": 47759,
    "oÄŁ": 47775,
    "Time": 47776,
    "ĠMcA": 47789,
    "ĠâĹ": 47794,
    "Ġcalibr": 47795,
    "ĠEdit": 47818,
    "à¤": 47822,
    "ĠFrie": 47825,
    "Ġjugg": 47842,
    "ĠKardash": 47844,
    "ĠBalk": 47845,
    "Ġnutrit": 47847,
    "Rew": 47868,
    "typ": 47871,
    "Ġpseud": 47874,
    "Ġrever": 47879,
    "Ġspor": 47917,
    "Ġbarbar": 47921,
    "ĠExplos": 47923,
    "Support": 47926,
    "talk": 47931,
    "ĠPeg": 47933,
    "ĠPS": 47934,
    "ĠAuthent": 47936,
    "@#": 47938,
    "ĠJean": 47947,
    "ãĥ©": 47949,
    "object": 47950,
    "Ġ39": 47952,
    "Ġinstruction": 47956,
    "ĠBrid": 47963,
    "Ġeste": 47988,
    "abil": 47994,
    "Ġmathematic": 47996,
    "ĠTrin": 48014,
    "Ġfooth": 48016,
    "ĠUnch": 48017,
    "Ġclutch": 48026,
    "ĠGut": 48028,
    "ĠART": 48046,
    "Ġirregular": 48047,
    "çī": 48049,
    "Econom": 48052,
    "Ġcough": 48053,
    "ilant": 48056,
    "Ġreneg": 48057,
    "ĠSwords": 48063,
    "Ġexert": 48067,
    "Ġperil": 48070,
    "lock": 48076,
    "ĠAfgh": 48081,
    "Jam": 48082,
    "Stat": 48427,
    "Ġviewers": 48092,
    "ĠCHR": 48099,
    "Ġcolonial": 48104,
    "Cond": 48107,
    "ĠDPR": 48108,
    "ĠCorrection": 48116,
    "95": 49893,
    "Specific": 48124,
    "Ġcram": 48129,
    "here": 48131,
    "Thank": 48132,
    "ÃĽ": 48141,
    "ONE": 48144,
    "Ġglut": 48147,
    "ning": 48150,
    "Ġleaf": 48154,
    "ĠQuad": 48192,
    "Attempt": 48197,
    "Ġseed": 48198,
    "Ġfrivol": 48206,
    "Es": 48209,
    "ĠBle": 48214,
    "Ġcoer": 48219,
    "Ġstag": 48225,
    "Ġinert": 48227,
    "Where": 48239,
    "Ġnarciss": 48247,
    "icro": 48263,
    "ĠFren": 48267,
    "Ġfled": 48270,
    "765": 48272,
    "Ġvirgin": 48278,
    "da": 48284,
    "Ġobjection": 48285,
    "âĨ": 48286,
    "ĠDEF": 48296,
    "wra": 48298,
    "ĠJP": 48306,
    "Ġunconscious": 48315,
    "Ġflower": 48318,
    "Ġratt": 48333,
    "iew": 48341,
    "Ġvow": 48362,
    "ĠWer": 48387,
    "ĠDJ": 48389,
    "Ġwitch": 48391,
    "benef": 48394,
    "Product": 48395,
    "Ġbolst": 48422,
    "time": 48423,
    "ĠKimber": 48430,
    "Ġindign": 48434,
    "oresc": 48444,
    "iosyn": 48447,
    "Hig": 48453,
    "Ġsolic": 48454,
    "Ġhaw": 48455,
    "89": 49427,
    "Ġbombs": 48459,
    "Ġbroker": 48461,
    "Ġunwitting": 48471,
    "Ġbrain": 48478,
    "Mic": 48481,
    "ĠEzek": 48487,
    "Ġstars": 48489,
    "df": 48498,
    "Ġtopp": 49122,
    "ĠBritt": 48518,
    "CLA": 48523,
    "ĠBolshe": 48534,
    "Ġalmond": 48538,
    "Ġunbeat": 48543,
    "Tim": 48546,
    "Ġell": 48549,
    "dat": 48551,
    "ĠCOMM": 48556,
    "ĠScorp": 48566,
    "ĠPorts": 48568,
    "iaz": 48571,
    "Ġslides": 48573,
    "Wik": 48590,
    "Ġeye": 48592,
    "iner": 48603,
    "Ì": 48614,
    "ĠVIDE": 48621,
    "ĠKin": 48624,
    "Ġarsen": 48629,
    "ĠPain": 48847,
    "ĠTravel": 48644,
    "ĠClub": 48646,
    "Ġcruc": 48650,
    "Ġsimul": 48656,
    "hus": 48657,
    "ĠBomb": 48663,
    "Cath": 48664,
    "Ġemanc": 48681,
    "Thom": 48687,
    "Ġshenan": 48694,
    "SC": 48701,
    "Ġbark": 48706,
    "ĠTorn": 48715,
    "Ġjoy": 49230,
    "Emer": 48724,
    "ĠTimber": 48728,
    "ĠLump": 48746,
    "ĠGuer": 48747,
    "Ġchips": 48758,
    "Catal": 48760,
    "Enh": 48771,
    "ĠFior": 48773,
    "Len": 48781,
    "Els": 48795,
    "Ġfaint": 48802,
    "Aw": 48806,
    "Ġpric": 48828,
    "Ġgel": 48829,
    "Ġeman": 48830,
    "ĠLaz": 48838,
    "Ġpes": 48854,
    "Compan": 48856,
    "ĠFors": 48861,
    "ĠGlac": 48865,
    "QUI": 48873,
    "Ġransom": 48879,
    "oooooooo": 48880,
    "rub": 48882,
    "ĠFOR": 48889,
    "ãģ®å": 48894,
    "ĠContribut": 48897,
    "Sex": 48906,
    "ĠSummon": 48912,
    "Dest": 48919,
    "ĠFisher": 48924,
    "Ġcorrection": 48932,
    "lee": 48934,
    "Ġtresp": 48937,
    "ĠContract": 48944,
    "Ġemph": 48951,
    "my": 48961,
    "minist": 48973,
    "ĠNation": 48977,
    "Ġma": 48980,
    "Ġtread": 48991,
    "Ġssh": 48994,
    "ĠJak": 48996,
    "ĠSERV": 48999,
    "rompt": 49000,
    "bled": 49003,
    "ĠLE": 49022,
    "!'": 49041,
    "Ġwet": 49042,
    "ĠSic": 49046,
    "ĠRound": 49055,
    "ĠGerr": 49059,
    "Ġacute": 49062,
    "Typ": 49066,
    "ĠGle": 49084,
    "ĠMormon": 49087,
    "arl": 49089,
    "ĠCompos": 49100,
    "Ġ45": 49101,
    "END": 49106,
    "ĠAshe": 49107,
    "world": 49111,
    "Ġorthodox": 49116,
    "Else": 49119,
    "Ġadopt": 49123,
    "Ġwrink": 49136,
    "four": 49138,
    "Ġcompress": 49140,
    "Ġmodern": 49145,
    "Ġfue": 49170,
    "ĠEmin": 49173,
    "NY": 49175,
    "ĠCanaver": 49178,
    "impro": 49198,
    "ĠStru": 49205,
    "ĠAMER": 49208,
    "ĠSit": 49210,
    "ĠSne": 49220,
    "æŃ": 49221,
    "Ġclust": 49225,
    "Ġdystop": 49228,
    "Tom": 49233,
    "ENG": 49239,
    "Ġrapp": 49978,
    "ĠUse": 49256,
    "Ġdebt": 49264,
    "Ġbranch": 49271,
    "âĸĪâĸĪâĸĪâĸĪ": 49272,
    "Ġmish": 49275,
    "ĠKon": 49276,
    "ĠNath": 49281,
    "spect": 49285,
    "å°": 49291,
    "Ġstreet": 49297,
    "Ġloot": 49320,
    "Ġveto": 49326,
    "Ġstiff": 49331,
    "NEW": 49342,
    "ĠNewsp": 49343,
    "Ġinexpl": 49347,
    "ARD": 49353,
    "ĠWem": 49356,
    "phil": 49358,
    "Ġpercept": 49360,
    "worm": 49362,
    "Ġunsur": 49364,
    "Ġboun": 49368,
    "amed": 49382,
    "agg": 49384,
    "DER": 49388,
    "Coll": 49390,
    "ĠDM": 49632,
    "OG": 49401,
    "Ġrab": 49411,
    "ĠMother": 49418,
    "ĠJUST": 49432,
    "Ġsprink": 49437,
    "////////////////": 49449,
    "First": 49454,
    "ĠColleg": 49472,
    "ĠEntity": 49476,
    "Ġlaure": 49479,
    "Ġdenomin": 49480,
    "sum": 49481,
    "ĠPA": 49487,
    "ĠMond": 49493,
    "ĠLer": 49495,
    "Ire": 49497,
    "Ġpatron": 49498,
    "Mos": 49502,
    "ĠFlo": 49513,
    "Syn": 49516,
    "mass": 49522,
    "ĠPref": 49525,
    "eval": 49531,
    "ĠNET": 49536,
    "Ġparcel": 49541,
    "Ġactress": 49543,
    "ifer": 49546,
    "ĠMell": 49553,
    "Ġneut": 49555,
    "ĠFlav": 49558,
    "ĠHitch": 49562,
    "Den": 49563,
    "ĠDRAG": 49564,
    "ĠCONTR": 49578,
    "ozy": 49579,
    "ogl": 49580,
    "âĸ¬": 49588,
    "ĠCab": 49603,
    "ĠRos": 49604,
    "ĠLans": 49605,
    "ĠUFO": 49608,
    "Hard": 49610,
    "ĠVI": 49625,
    "ĠNem": 49630,
    "Vict": 49643,
    "hi": 49652,
    "ĠNir": 49668,
    "ĠFranch": 49669,
    "ĠBerks": 49672,
    "ĠHEL": 49689,
    "Ġcriminal": 49695,
    "ĠTow": 49698,
    "right": 49700,
    "æ©": 49705,
    "capital": 49715,
    "Ġmorp": 49721,
    "Ġtheft": 49725,
    "necess": 49731,
    "cern": 49735,
    "ĠMotors": 49741,
    "Mur": 49743,
    "Ġfurther": 49747,
    "Ġdexter": 49748,
    "Ġstrut": 49754,
    "Ġmassac": 49755,
    "fet": 49757,
    "uv": 49758,
    "Fail": 49760,
    "ĠSubst": 49766,
    "Ġarist": 49770,
    "Ġradi": 49781,
    "Ã§": 49786,
    "watch": 49787,
    "Ġiod": 49792,
    "ĠConcept": 49798,
    "ez": 49808,
    "ĠAnch": 49811,
    "Ġretali": 49826,
    "Ġmig": 49827,
    "Ġmarqu": 49834,
    "ĠHa": 49835,
    "ĠGD": 49837,
    "ĠDownload": 49838,
    "ĠRecord": 49841,
    "Ġsore": 49848,
    "Ġflick": 49849,
    "allow": 49852,
    "Ms": 49853,
    "ĠBig": 49865,
    "Ġbisc": 49873,
    "Ġantid": 49876,
    "blood": 49877,
    "ĠGP": 49888,
    "ĠPRES": 49898,
    "Ġguarantee": 49901,
    "ĠAnthrop": 49916,
    "Ġantagon": 49923,
    "ĠGiov": 49936,
    "Ġvolley": 49941,
    "Ġshroud": 49942,
    "ĠFranÃ§": 49953,
    "ĠClaud": 49959,
    "Ġinteresting": 49971,
    "ĠEnhance": 49975,
    "Sk": 49977,
    "Rev": 49982,
    "Ġconglomer": 49985,
    "Ġhars": 49988
}